{"vocab_size": 4096, "specials": ["<PAD>", "<UNK>", "<BOS>", "<EOS>"], "vocab": {"<PAD>": 0, "<UNK>": 1, "<BOS>": 2, "<EOS>": 3, "\n": 4, " ": 5, "!": 6, "\"": 7, "#": 8, "$": 9, "%": 10, "&": 11, "'": 12, "(": 13, ")": 14, "*": 15, "+": 16, ",": 17, "-": 18, ".": 19, "/": 20, "0": 21, "1": 22, "2": 23, "3": 24, "4": 25, "5": 26, "6": 27, "7": 28, "8": 29, "9": 30, ":": 31, ";": 32, "<": 33, "=": 34, ">": 35, "?": 36, "@": 37, "A": 38, "B": 39, "C": 40, "D": 41, "E": 42, "F": 43, "G": 44, "H": 45, "I": 46, "J": 47, "K": 48, "L": 49, "M": 50, "N": 51, "O": 52, "P": 53, "Q": 54, "R": 55, "S": 56, "T": 57, "U": 58, "V": 59, "W": 60, "X": 61, "Y": 62, "Z": 63, "[": 64, "\\": 65, "]": 66, "_": 67, "a": 68, "b": 69, "c": 70, "d": 71, "e": 72, "f": 73, "g": 74, "h": 75, "i": 76, "j": 77, "k": 78, "l": 79, "m": 80, "n": 81, "o": 82, "p": 83, "q": 84, "r": 85, "s": 86, "t": 87, "u": 88, "v": 89, "w": 90, "x": 91, "y": 92, "z": 93, "{": 94, "|": 95, "}": 96, "~": 97, " ": 98, "¡": 99, "£": 100, "§": 101, "ª": 102, "«": 103, "°": 104, "±": 105, "²": 106, "³": 107, "´": 108, "µ": 109, "·": 110, "¹": 111, "º": 112, "»": 113, "½": 114, "¿": 115, "À": 116, "Á": 117, "Â": 118, "Ã": 119, "Ä": 120, "Å": 121, "Ç": 122, "È": 123, "É": 124, "Ê": 125, "Ì": 126, "Í": 127, "Ò": 128, "Ó": 129, "Ô": 130, "Õ": 131, "Ö": 132, "×": 133, "Ú": 134, "Ü": 135, "à": 136, "á": 137, "â": 138, "ã": 139, "ä": 140, "æ": 141, "ç": 142, "è": 143, "é": 144, "ê": 145, "ë": 146, "ì": 147, "í": 148, "î": 149, "ï": 150, "ð": 151, "ñ": 152, "ò": 153, "ó": 154, "ô": 155, "õ": 156, "ö": 157, "ø": 158, "ù": 159, "ú": 160, "û": 161, "ü": 162, "ý": 163, "þ": 164, "ā": 165, "ă": 166, "ć": 167, "Č": 168, "č": 169, "Đ": 170, "đ": 171, "ē": 172, "ė": 173, "ī": 174, "İ": 175, "Ł": 176, "ł": 177, "œ": 178, "ř": 179, "ş": 180, "Š": 181, "š": 182, "ū": 183, "Ż": 184, "ż": 185, "Ž": 186, "ș": 187, "ʒ": 188, "ʻ": 189, "ʿ": 190, "ː": 191, "̀": 192, "́": 193, "͡": 194, "Α": 195, "Β": 196, "Δ": 197, "Ζ": 198, "Π": 199, "Φ": 200, "έ": 201, "ή": 202, "ί": 203, "α": 204, "β": 205, "γ": 206, "δ": 207, "ε": 208, "ζ": 209, "η": 210, "ι": 211, "κ": 212, "λ": 213, "μ": 214, "ν": 215, "ο": 216, "π": 217, "ρ": 218, "ς": 219, "τ": 220, "φ": 221, "χ": 222, "ω": 223, "ύ": 224, "и": 225, "ላ": 226, "ራ": 227, "ዊ": 228, "ዴ": 229, "ፌ": 230, "ṣ": 231, "Ẹ": 232, "ẹ": 233, "ễ": 234, "ệ": 235, "Ọ": 236, "ọ": 237, "ἀ": 238, " ": 239, " ": 240, " ": 241, " ": 242, "​": 243, "‎": 244, "‑": 245, "–": 246, "—": 247, "―": 248, "‘": 249, "’": 250, "“": 251, "”": 252, "†": 253, "•": 254, "…": 255, " ": 256, "′": 257, "€": 258, "℃": 259, "→": 260, "⇒": 261, "∈": 262, "−": 263, "≠": 264, "≤": 265, "█": 266, "★": 267, "南": 268, "日": 269, "구": 270, "역": 271, "정": 272, "행": 273, "de": 274, "do": 275, "ra": 276, "es": 277, "nt": 278, "da": 279, "co": 280, "os": 281, "as": 282, "ri": 283, "re": 284, "ta": 285, "is": 286, "or": 287, "ma": 288, "ão": 289, "er": 290, "em": 291, "ca": 292, "in": 293, "qu": 294, "ent": 295, "ci": 296, "al": 297, "ro": 298, "en": 299, "ti": 300, "pa": 301, "el": 302, "com": 303, "se": 304, "an": 305, "to": 306, "ção": 307, "que": 308, "ar": 309, "te": 310, "no": 311, "di": 312, "na": 313, "po": 314, "dos": 315, "li": 316, "ment": 317, "ei": 318, "ul": 319, "ni": 320, "si": 321, "tu": 322, "19": 323, "gu": 324, "so": 325, "por": 326, "um": 327, "res": 328, "ou": 329, "on": 330, "vi": 331, "ol": 332, "con": 333, "uma": 334, "des": 335, "ha": 336, "das": 337, "su": 338, "para": 339, "va": 340, "mo": 341, "fi": 342, "ex": 343, "ria": 344, "pro": 345, "ões": 346, "la": 347, "tra": 348, "mi": 349, "us": 350, "fo": 351, "nte": 352, "dade": 353, "nci": 354, "gi": 355, "am": 356, "mente": 357, "pe": 358, "du": 359, "como": 360, "lo": 361, "20": 362, "pel": 363, "ram": 364, "at": 365, "ran": 366, "ho": 367, "un": 368, "ter": 369, "ve": 370, "go": 371, "pos": 372, "ções": 373, "ado": 374, "ver": 375, "pri": 376, "for": 377, "ant": 378, "me": 379, "ist": 380, "esta": 381, "le": 382, "são": 383, "ista": 384, "pi": 385, "mento": 386, "ação": 387, ").": 388, "bi": 389, "tr": 390, "a,": 391, "mais": 392, "ce": 393, "tos": 394, "cul": 395, "foi": 396, "par": 397, "Es": 398, "ém": 399, "sa": 400, "cont": 401, "lu": 402, "rio": 403, "cas": 404, "pres": 405, "tor": 406, "eiro": 407, "he": 408, "ao": 409, "vo": 410, "18": 411, "mu": 412, "tura": 413, "mb": 414, "ser": 415, "ga": 416, "cos": 417, "era": 418, "ncia": 419, "tem": 420, "per": 421, "mas": 422, "ntes": 423, "ís": 424, "eira": 425, "min": 426, "est": 427, "ia": 428, "ça": 429, "fe": 430, "ês": 431, "não": 432, "lí": 433, "bra": 434, "ando": 435, "cu": 436, "im": 437, "sua": 438, "forma": 439, "sil": 440, "gra": 441, "il": 442, "o,": 443, "-se": 444, "ns": 445, "onal": 446, "ros": 447, "Co": 448, "cor": 449, "vol": 450, "ele": 451, "ente": 452, "Em": 453, "ência": 454, "ne": 455, "Pa": 456, "ali": 457, "pre": 458, "int": 459, "m.": 460, "fu": 461, "tica": 462, "nos": 463, "200": 464, "pode": 465, "ru": 466, "ais": 467, "fa": 468, "entre": 469, "za": 470, "mai": 471, "(m.": 472, "tas": 473, "tamb": 474, "ndo": 475, "também": 476, "rica": 477, "ces": 478, "endo": 479, "Re": 480, "pela": 481, "pen": 482, "cio": 483, "pul": 484, "fica": 485, "gues": 486, "nas": 487, "cional": 488, "cri": 489, "No": 490, "vel": 491, "ano": 492, "bol": 493, "ab": 494, "Al": 495, "seu": 496, "ch": 497, "prim": 498, "rei": 499, "cial": 500, "tal": 501, "pelo": 502, "pl": 503, "segu": 504, "Ma": 505, "lica": 506, "cons": 507, "tro": 508, "tebol": 509, "ja": 510, "sob": 511, "os,": 512, "mes": 513, "ário": 514, "fre": 515, "tado": 516, "dia": 517, "emb": 518, "pes": 519, "ina": 520, "man": 521, "cer": 522, "ob": 523, "201": 524, "uni": 525, "As": 526, "ári": 527, "ag": 528, "car": 529, "Por": 530, "futebol": 531, "tico": 532, "199": 533, "país": 534, "Uni": 535, "Os": 536, "ba": 537, "n.": 538, "ju": 539, "ens": 540, "qui": 541, "au": 542, "parti": 543, "dades": 544, "cí": 545, "es,": 546, "tar": 547, "ir": 548, "este": 549, "Na": 550, "(n.": 551, "as,": 552, "dis": 553, "popul": 554, "titu": 555, "rit": 556, "produ": 557, "ide": 558, "polí": 559, "pu": 560, "nto": 561, "orte": 562, "mar": 563, "erra": 564, "maior": 565, "pal": 566, "fun": 567, "cent": 568, "brasil": 569, "ada": 570, "mos": 571, "tiva": 572, "cidade": 573, "âni": 574, "ge": 575, "mui": 576, "ino": 577, "tru": 578, "lh": 579, "écul": 580, "tri": 581, "tes": 582, "anos": 583, "tros": 584, "São": 585, "a.": 586, "mé": 587, "ber": 588, "fin": 589, "pas": 590, "io": 591, "ris": 592, "je": 593, "futebolista": 594, "Con": 595, "tin": 596, "regi": 597, "be": 598, "men": 599, "conhe": 600, "ten": 601, "Se": 602, "xi": 603, "den": 604, "cha": 605, "vis": 606, "sobre": 607, "Bra": 608, "inter": 609, "gran": 610, "197": 611, "198": 612, "pr": 613, "rela": 614, "der": 615, "dor": 616, "ad": 617, "clu": 618, "present": 619, "bo": 620, "gan": 621, "Sant": 622, "ras": 623, "foram": 624, "até": 625, "ori": 626, "ós": 627, "Ca": 628, "dera": 629, "De": 630, "loca": 631, "contra": 632, "Jo": 633, "ição": 634, "gos": 635, "gre": 636, "tiv": 637, "rior": 638, "gen": 639, "tados": 640, "pan": 641, "sem": 642, "parte": 643, "00": 644, "gia": 645, "éculo": 646, "ur": 647, "pera": 648, "cre": 649, "fere": 650, "princi": 651, "bas": 652, "ismo": 653, "envol": 654, "conheci": 655, "ço": 656, "ix": 657, "do,": 658, "ap": 659, "algu": 660, "fregues": 661, "ória": 662, "cel": 663, "rante": 664, "196": 665, "Gu": 666, "vez": 667, "17": 668, "iste": 669, "mer": 670, "pé": 671, "muni": 672, "mentos": 673, "ame": 674, "II": 675, "Brasil": 676, "gem": 677, "cl": 678, "15": 679, "seus": 680, "ares": 681, "Mar": 682, "val": 683, "cada": 684, "brasileiro": 685, "nio": 686, "gover": 687, "cípi": 688, "194": 689, "Li": 690, "ins": 691, "blica": 692, "porta": 693, "cia": 694, "sendo": 695, "atri": 696, "Fran": 697, "ciona": 698, "rá": 699, "ários": 700, "plo": 701, "fil": 702, "Vi": 703, "ças": 704, "mun": 705, "lin": 706, "pú": 707, "áre": 708, "Ar": 709, "zação": 710, "dense": 711, "eito": 712, "portu": 713, "sim": 714, "gua": 715, "tivo": 716, "ral": 717, "anti": 718, "jo": 719, "bal": 720, "indo": 721, "nti": 722, "),": 723, "Ch": 724, "onde": 725, "uro": 726, "ass": 727, "pois": 728, "pon": 729, "e,": 730, "ex-": 731, "inda": 732, "193": 733, "bita": 734, "Mo": 735, "nta": 736, "america": 737, "195": 738, "século": 739, "ban": 740, "Car": 741, "nome": 742, "outros": 743, "ticas": 744, "inclu": 745, "ela": 746, "sica": 747, "et": 748, "fí": 749, "tras": 750, "nacional": 751, "grande": 752, "população": 753, "anto": 754, "té": 755, "eral": 756, "ão,": 757, "estadu": 758, "desenvol": 759, "espe": 760, "bu": 761, "qual": 762, "tual": 763, "ing": 764, "In": 765, "estado": 766, "compos": 767, "tre": 768, "as.": 769, "lan": 770, "vimento": 771, "Pe": 772, "sos": 773, "está": 774, "ador": 775, "cam": 776, "ac": 777, "Com": 778, "trans": 779, "ona": 780, "aos": 781, "gal": 782, "ven": 783, "municípi": 784, "Po": 785, "col": 786, "freguesia": 787, "primeiro": 788, "fran": 789, "primeira": 790, "tá": 791, "eiros": 792, "pró": 793, "ênci": 794, "és": 795, "0,": 796, "zi": 797, "escri": 798, "come": 799, "suas": 800, "atra": 801, "oria": 802, "segui": 803, "16": 804, "istema": 805, "tó": 806, "ainda": 807, "político": 808, "Mi": 809, "esti": 810, "vida": 811, "Ro": 812, "habita": 813, "mesmo": 814, "to,": 815, "So": 816, "fer": 817, "depen": 818, "Lu": 819, "ôni": 820, "reg": 821, "norte": 822, "sidade": 823, "pesso": 824, "sub": 825, "cesso": 826, "nú": 827, "penas": 828, "faz": 829, "durante": 830, "região": 831, "is,": 832, "tação": 833, "ulo": 834, "mada": 835, "ias": 836, "consi": 837, "che": 838, "dro": 839, "quando": 840, "Par": 841, "pla": 842, "ritâni": 843, "rece": 844, "ini": 845, "her": 846, "olo": 847, "vent": 848, "dio": 849, "corre": 850, "ora": 851, "bli": 852, "An": 853, "estaduni": 854, "192": 855, "istória": 856, "Cas": 857, "ess": 858, "mil": 859, "ás": 860, "possu": 861, "ofi": 862, "Ba": 863, "ores": 864, "apenas": 865, "quanto": 866, "lon": 867, "cultura": 868, "governo": 869, "principal": 870, "difere": 871, "Portu": 872, "istem": 873, "istas": 874, "ados": 875, "hos": 876, "cal": 877, "ível": 878, "muito": 879, "estadunidense": 880, "dores": 881, "estu": 882, "entes": 883, "Ri": 884, "oi": 885, "Estados": 886, "Qu": 887, "st": 888, "todos": 889, "gas": 890, "tili": 891, "Su": 892, "britâni": 893, "can": 894, "sig": 895, "Di": 896, "reali": 897, "milh": 898, "funda": 899, "embro": 900, "istra": 901, "cria": 902, "via": 903, "organ": 904, "dois": 905, "cis": 906, "Ex": 907, "dent": 908, "gar": 909, "flu": 910, "ra,": 911, "has": 912, "alem": 913, "bro": 914, "hi": 915, "co,": 916, "área": 917, "sistema": 918, "trabal": 919, "ór": 920, "soci": 921, "mia": 922, "nda": 923, "dados": 924, "ér": 925, "dist": 926, "ana": 927, "ógi": 928, "cur": 929, "eram": 930, "mente,": 931, "vido": 932, "Cam": 933, "outras": 934, "veis": 935, "já": 936, "cerca": 937, "esse": 938, "lidade": 939, "ator": 940, "idente": 941, "lei": 942, "vas": 943, "pelos": 944, "gru": 945, "liv": 946, "ração": 947, "greja": 948, "dem": 949, "av": 950, "vam": 951, "vés": 952, "vos": 953, "exem": 954, "estão": 955, "utili": 956, "da,": 957, "volu": 958, "habitantes": 959, "mú": 960, "dire": 961, "atriz": 962, "cimento": 963, "podem": 964, "ví": 965, "auto": 966, "pública": 967, "mei": 968, "Ver": 969, "Pro": 970, "sido": 971, "município": 972, "tí": 973, "cen": 974, "árias": 975, "óri": 976, "les": 977, "sul": 978, "ex-futebolista": 979, "três": 980, "númer": 981, "mili": 982, "cin": 983, "mel": 984, "ita": 985, "Unidos": 986, "considera": 987, "of": 988, "diver": 989, "capi": 990, "ticos": 991, "km": 992, "constru": 993, "ind": 994, "al,": 995, "ária": 996, "dência": 997, "Fre": 998, "cou": 999, "rí": 1000, "tel": 1001, "reli": 1002, "zado": 1003, "tempo": 1004, "ção,": 1005, "dé": 1006, "quer": 1007, "importa": 1008, "lti": 1009, "do.": 1010, "cla": 1011, "14": 1012, "10": 1013, "1,": 1014, "inte": 1015, "Santa": 1016, "Rio": 1017, "Le": 1018, "pais": 1019, "desta": 1020, "religi": 1021, "mor": 1022, "ement": 1023, "americano": 1024, "apresent": 1025, "eta": 1026, "antes": 1027, "indi": 1028, "quen": 1029, "3,": 1030, "represent": 1031, "ências": 1032, "huma": 1033, "panh": 1034, "após": 1035, "Ou": 1036, "nter": 1037, "mul": 1038, "edi": 1039, "cês": 1040, "ca,": 1041, "encontra": 1042, "Portugal": 1043, "má": 1044, "Guerra": 1045, "co.": 1046, "bem": 1047, "rem": 1048, "lia": 1049, "através": 1050, "ío": 1051, "desde": 1052, "Sul": 1053, "grafi": 1054, "partir": 1055, "fal": 1056, "agem": 1057, "Des": 1058, "s,": 1059, "1).": 1060, "gn": 1061, "às": 1062, "rac": 1063, "os.": 1064, "apro": 1065, "Jos": 1066, "Ant": 1067, "constitu": 1068, "que,": 1069, "To": 1070, "ilha": 1071, "sas": 1072, "francês": 1073, "alguns": 1074, "cola": 1075, "pra": 1076, "tinha": 1077, "ório": 1078, "fei": 1079, "chama": 1080, "contin": 1081, "ministra": 1082, "todo": 1083, "depois": 1084, "dei": 1085, "além": 1086, "Is": 1087, "rin": 1088, "Ge": 1089, "190": 1090, "Igreja": 1091, "torno": 1092, "pou": 1093, "rou": 1094, "exemplo": 1095, "territ": 1096, "milhões": 1097, "portugues": 1098, "tradi": 1099, "Fer": 1100, "2,": 1101, "gado": 1102, "atro": 1103, "usa": 1104, "ços": 1105, "vem": 1106, "cres": 1107, "nor": 1108, "base": 1109, "ício": 1110, "duas": 1111, "trutura": 1112, "cono": 1113, "maioria": 1114, "últi": 1115, "perío": 1116, "resul": 1117, "geral": 1118, "cação": 1119, "th": 1120, "grafia": 1121, "idade": 1122, "guês": 1123, "tê": 1124, "edade": 1125, "Cons": 1126, "and": 1127, "189": 1128, "Segu": 1129, "arqui": 1130, "XI": 1131, "há": 1132, "tou": 1133, "ância": 1134, "ambi": 1135, "plan": 1136, "ase": 1137, "medi": 1138, "mis": 1139, "acor": 1140, "ho,": 1141, "anu": 1142, "ável": 1143, "l,": 1144, "ceu": 1145, "bar": 1146, "mica": 1147, "peri": 1148, "Sen": 1149, "comuni": 1150, "junto": 1151, "número": 1152, "estrutura": 1153, "es.": 1154, "zada": 1155, "ani": 1156, "12": 1157, "emente": 1158, "ante": 1159, "sol": 1160, "aneiro": 1161, "dial": 1162, "úni": 1163, "tivi": 1164, "ano.": 1165, "péci": 1166, "ân": 1167, "rito": 1168, "ál": 1169, "formação": 1170, "cionais": 1171, "lín": 1172, "cialmente": 1173, "presidente": 1174, "jor": 1175, "bele": 1176, "brasileiro.": 1177, "obje": 1178, "Mu": 1179, "Du": 1180, "Euro": 1181, "pequen": 1182, "son": 1183, "Nacional": 1184, "ciais": 1185, "tido": 1186, "ações": 1187, "gin": 1188, "so,": 1189, "nifica": 1190, "iu": 1191, "Nos": 1192, "essa": 1193, "nal": 1194, "Um": 1195, "colo": 1196, "atual": 1197, "quis": 1198, "vários": 1199, "dez": 1200, "Estado": 1201, "Cent": 1202, "rus": 1203, "acordo": 1204, "Inter": 1205, "empres": 1206, "concel": 1207, "política": 1208, "Para": 1209, "nova": 1210, "República": 1211, "bri": 1212, "organi": 1213, "cra": 1214, "13": 1215, "ck": 1216, "espéci": 1217, "4,": 1218, "Ent": 1219, "ntor": 1220, "eles": 1221, "ta,": 1222, "enquanto": 1223, "indepen": 1224, "significa": 1225, "termin": 1226, "are": 1227, "Ju": 1228, "5,": 1229, "administra": 1230, "cé": 1231, "composi": 1232, "fam": 1233, "tão": 1234, "assim": 1235, "menos": 1236, "tores": 1237, "frica": 1238, "defin": 1239, "sí": 1240, "ard": 1241, "inha": 1242, "deste": 1243, "mí": 1244, "obra": 1245, "tamente": 1246, "exter": 1247, "tendo": 1248, "Mun": 1249, "Go": 1250, "mal": 1251, "elei": 1252, "carac": 1253, "6,": 1254, "Ne": 1255, "espa": 1256, "direi": 1257, "sou": 1258, "nia": 1259, "início": 1260, "Im": 1261, "ocu": 1262, "fra": 1263, "desenvolvimento": 1264, "influ": 1265, "o.": 1266, "25": 1267, "visão": 1268, "abri": 1269, "segundo": 1270, "ocorre": 1271, "servi": 1272, "passa": 1273, "deu": 1274, "principais": 1275, "Gran": 1276, "eli": 1277, "contro": 1278, "alemão": 1279, "Fe": 1280, "ónio": 1281, "estra": 1282, "José": 1283, "povo": 1284, "Paulo": 1285, "Sa": 1286, "hora": 1287, "8,": 1288, "7,": 1289, "tivos": 1290, "hor": 1291, "ruz": 1292, "então": 1293, "capital": 1294, "João": 1295, "grama": 1296, "várias": 1297, "ula": 1298, "188": 1299, "apo": 1300, "mbi": 1301, "estabele": 1302, "só": 1303, "compu": 1304, "ribu": 1305, "natura": 1306, "Univer": 1307, "território": 1308, "isto": 1309, "Do": 1310, "Uma": 1311, "Bar": 1312, "Esta": 1313, "locali": 1314, "história": 1315, "aca": 1316, "enta": 1317, "grandes": 1318, "bilidade": 1319, "permi": 1320, "ton": 1321, "Ci": 1322, "guerra": 1323, "serva": 1324, "Te": 1325, "econo": 1326, "final": 1327, "sur": 1328, "éri": 1329, "possui": 1330, "ren": 1331, "D.": 1332, "los": 1333, "português": 1334, "fir": 1335, "deno": 1336, "maz": 1337, "de,": 1338, "cular": 1339, "amb": 1340, "espanh": 1341, "algumas": 1342, "muitos": 1343, "publica": 1344, "pare": 1345, "torna": 1346, "cado": 1347, "têm": 1348, "lio": 1349, "202": 1350, "situ": 1351, "pessoas": 1352, "itali": 1353, "tais": 1354, "mundo": 1355, "lha": 1356, "çou": 1357, "La": 1358, "2).": 1359, "=\"": 1360, "inas": 1361, "ro,": 1362, "Foi": 1363, "Norte": 1364, "pei": 1365, "ero": 1366, "mem": 1367, "tera": 1368, "Pi": 1369, "total": 1370, "ang": 1371, "cente": 1372, "có": 1373, "período": 1374, "brasileira": 1375, "épo": 1376, "econ": 1377, "anto,": 1378, "posição": 1379, "produção": 1380, "ologia": 1381, "prote": 1382, "sico": 1383, "tivas": 1384, "longo": 1385, "cli": 1386, "opera": 1387, "Bo": 1388, "Or": 1389, "Ale": 1390, "ene": 1391, "Mé": 1392, "diferentes": 1393, "escritor": 1394, "9,": 1395, "For": 1396, "pesar": 1397, "poder": 1398, "processo": 1399, "tornou": 1400, "fro": 1401, "cido": 1402, "devido": 1403, "Porto": 1404, "Cor": 1405, "ze": 1406, "mico": 1407, "entanto,": 1408, "art": 1409, "Hen": 1410, "En": 1411, "meio": 1412, "ata": 1413, "memb": 1414, "tei": 1415, "teri": 1416, "bel": 1417, "compositor": 1418, "dente": 1419, "logo": 1420, "cess": 1421, "186": 1422, "outro": 1423, "ale": 1424, "6).": 1425, "estadunidense.": 1426, "rig": 1427, "origem": 1428, "gações": 1429, "panha": 1430, "dida": 1431, "pec": 1432, "proje": 1433, "muitas": 1434, "feito": 1435, "num": 1436, "ografia": 1437, "públi": 1438, "ocupa": 1439, "volução": 1440, "ua": 1441, "tur": 1442, "Entre": 1443, "grupo": 1444, "ãos": 1445, "conhecido": 1446, "na,": 1447, "Maria": 1448, "norte-": 1449, "Lo": 1450, "década": 1451, "km²": 1452, "ntos": 1453, "fíci": 1454, "concelho": 1455, "fis": 1456, "cro": 1457, "clas": 1458, "the": 1459, "domin": 1460, "dou": 1461, "porte": 1462, "The": 1463, "Fa": 1464, "ética": 1465, "sede": 1466, "militar": 1467, "tante": 1468, "religios": 1469, "Tra": 1470, "quais": 1471, "XV": 1472, "volta": 1473, "NA": 1474, "denomin": 1475, "Cruz": 1476, "XIX": 1477, "teve": 1478, "todas": 1479, "4).": 1480, "hoje": 1481, "principalmente": 1482, "países": 1483, "História": 1484, "sifica": 1485, "bre": 1486, "7).": 1487, "dar": 1488, "limi": 1489, "plica": 1490, "desco": 1491, "sequ": 1492, "moder": 1493, "tivamente": 1494, "lista": 1495, "sal": 1496, "5).": 1497, "dido": 1498, "própri": 1499, "11": 1500, "Ra": 1501, "terior": 1502, "membros": 1503, "Ber": 1504, "equi": 1505, "fim": 1506, "3).": 1507, "cient": 1508, "capa": 1509, "pelas": 1510, "divi": 1511, "element": 1512, "ísticas": 1513, "ca.": 1514, "nto,": 1515, "187": 1516, "água": 1517, "tan": 1518, "adas": 1519, "pério": 1520, "III": 1521, "feri": 1522, "exi": 1523, "Pedro": 1524, "sen": 1525, "hou": 1526, "União": 1527, "tec": 1528, "pó": 1529, "França": 1530, "hist": 1531, "quatro": 1532, "Pres": 1533, "oeste": 1534, "Joh": 1535, "baix": 1536, "lugar": 1537, "aqu": 1538, "Sol": 1539, "dan": 1540, "Grande": 1541, "Cal": 1542, "ológi": 1543, "mon": 1544, "uso": 1545, "pass": 1546, "gada": 1547, "cem": 1548, "cél": 1549, "align": 1550, "incluindo": 1551, "istemas": 1552, "riam": 1553, "exist": 1554, "corpo": 1555, "vezes": 1556, "tora": 1557, "ída": 1558, "mode": 1559, "ática": 1560, "ido": 1561, "pí": 1562, "almente": 1563, "jornal": 1564, "espanhol": 1565, "respon": 1566, "comp": 1567, "Da": 1568, "Vila": 1569, "ído": 1570, "ições": 1571, "esa": 1572, "grá": 1573, "deve": 1574, "leva": 1575, "britânico": 1576, "gação": 1577, "vin": 1578, "programa": 1579, "tipo": 1580, "alidade": 1581, "importante": 1582, "relação": 1583, "ar,": 1584, "jul": 1585, "rim": 1586, "8).": 1587, "gens": 1588, "fos": 1589, "terra": 1590, "poss": 1591, "30": 1592, "Senhora": 1593, "cos,": 1594, "pós": 1595, "9).": 1596, "nu": 1597, "zados": 1598, "social": 1599, "famí": 1600, "portuguesa": 1601, "vou": 1602, "las": 1603, "caracter": 1604, "sej": 1605, "qualquer": 1606, "rique": 1607, "rede": 1608, "na.": 1609, "sões": 1610, "to.": 1611, "dri": 1612, "música": 1613, "logia": 1614, "185": 1615, "mulher": 1616, "metros": 1617, "língua": 1618, "ês.": 1619, "local": 1620, "align=\"": 1621, "aplica": 1622, "aco": 1623, "zar": 1624, "inh": 1625, "Ta": 1626, "lingu": 1627, "cidades": 1628, "Fi": 1629, "Col": 1630, "veu": 1631, "rios": 1632, "externas": 1633, "y,": 1634, "olí": 1635, "perior": 1636, "China": 1637, "tada": 1638, "tempera": 1639, "ph": 1640, "sia": 1641, "anos,": 1642, "al.": 1643, "tubro": 1644, "arquite": 1645, "reira": 1646, "edu": 1647, "plant": 1648, "0).": 1649, "ção.": 1650, "Francis": 1651, "event": 1652, "Fo": 1653, "cle": 1654, "ativi": 1655, "ré": 1656, "is.": 1657, "arti": 1658, "ecu": 1659, "deix": 1660, "deus": 1661, "cantor": 1662, "rada": 1663, "Fregues": 1664, "fen": 1665, "pesquis": 1666, "lar": 1667, "go,": 1668, "unda": 1669, "Me": 1670, "ons": 1671, "euro": 1672, "C.": 1673, "Como": 1674, "ano,": 1675, "trabalho": 1676, "ise": 1677, "exemplo,": 1678, "cident": 1679, "rança": 1680, "ça,": 1681, "cida": 1682, "Reino": 1683, "Wil": 1684, "roma": 1685, "dias": 1686, "embora": 1687, "ware": 1688, "origin": 1689, "no,": 1690, "quase": 1691, "pressão": 1692, "tando": 1693, "Século": 1694, "gê": 1695, "Nova": 1696, "ús": 1697, "econô": 1698, "0.": 1699, "vil": 1700, "japon": 1701, "bus": 1702, "Europa": 1703, "conjunto": 1704, "deri": 1705, "duzi": 1706, "Ori": 1707, "rael": 1708, "Nor": 1709, "ves": 1710, "sent": 1711, "z,": 1712, "determin": 1713, "Império": 1714, "conta": 1715, "mpi": 1716, "Dem": 1717, "Terra": 1718, "termo": 1719, "er,": 1720, "aus": 1721, "telo": 1722, "Nossa": 1723, "ima": 1724, "sistemas": 1725, "dado": 1726, "Universidade": 1727, "XX": 1728, "regiões": 1729, "Ligações": 1730, "nível": 1731, "espécies": 1732, "Amé": 1733, "rado": 1734, "oficial": 1735, "experi": 1736, "seja": 1737, "meta": 1738, "mou": 1739, "estas": 1740, "afir": 1741, "dentro": 1742, "governa": 1743, "computado": 1744, "quí": 1745, "partici": 1746, "vista": 1747, "temperatura": 1748, "atu": 1749, "tax": 1750, "país.": 1751, "prob": 1752, "Além": 1753, "nar": 1754, "dos,": 1755, "chamado": 1756, "conhecida": 1757, "rista": 1758, "liber": 1759, "caso": 1760, "nando": 1761, "unho": 1762, "manha": 1763, "tanto": 1764, "fl": 1765, "dra": 1766, "vesti": 1767, "Ele": 1768, "funci": 1769, "dentes": 1770, "S.": 1771, "univer": 1772, "centro": 1773, "escol": 1774, "ques": 1775, "clo": 1776, "forças": 1777, "movimento": 1778, "1.": 1779, "super": 1780, "mol": 1781, "érci": 1782, "Sal": 1783, "Alemanha": 1784, "históri": 1785, "execu": 1786, "formas": 1787, "estava": 1788, "propri": 1789, "Partido": 1790, "cana": 1791, "gol": 1792, "ma,": 1793, "cus": 1794, "morte": 1795, "zes": 1796, "trein": 1797, "canto": 1798, "das,": 1799, "Min": 1800, "data": 1801, "crescimento": 1802, "vada": 1803, "Rob": 1804, "Be": 1805, "passou": 1806, "elo": 1807, "engen": 1808, "ht": 1809, "Durante": 1810, "havia": 1811, "gera": 1812, "deira": 1813, "tos,": 1814, "dita": 1815, "Este": 1816, "ft": 1817, "Cha": 1818, "emin": 1819, "novo": 1820, "popula": 1821, "grupos": 1822, "talha": 1823, "rias": 1824, "produtor": 1825, "toda": 1826, "reiro": 1827, "Centro": 1828, "aproxi": 1829, "respo": 1830, "cipal": 1831, "tembro": 1832, "Cul": 1833, "perten": 1834, "ener": 1835, "Santo": 1836, "Após": 1837, "Popul": 1838, "superior": 1839, "primeiros": 1840, "gres": 1841, "ár": 1842, "Mundial": 1843, "teria": 1844, "maiores": 1845, "economia": 1846, "usado": 1847, "ende": 1848, "Per": 1849, "isti": 1850, "gador": 1851, "Cris": 1852, "Muni": 1853, "frequ": 1854, "184": 1855, "Paul": 1856, "Pal": 1857, "respons": 1858, "ística": 1859, "res,": 1860, "Lei": 1861, "rar": 1862, "amento": 1863, "Anti": 1864, "2.": 1865, "integra": 1866, "separa": 1867, "Bi": 1868, "produzi": 1869, "decla": 1870, "eiras": 1871, "ndi": 1872, "ulas": 1873, "classifica": 1874, "no.": 1875, "porto": 1876, "quista": 1877, "eleito": 1878, "segunda": 1879, "compl": 1880, "cade": 1881, "John": 1882, "anterior": 1883, "filos": 1884, "guas": 1885, "palav": 1886, "cursos": 1887, "Ti": 1888, "institu": 1889, "pouco": 1890, "vembro": 1891, "varia": 1892, "Federa": 1893, "sex": 1894, "ular": 1895, "tl": 1896, "ine": 1897, "seria": 1898, "possível": 1899, "elho": 1900, "frances": 1901, "treinador": 1902, "campo": 1903, "modelo": 1904, "Algu": 1905, "produz": 1906, "Ins": 1907, "áreas": 1908, "começou": 1909, "importantes": 1910, "eira,": 1911, "recebe": 1912, "próxi": 1913, "cni": 1914, "Janeiro": 1915, "lado": 1916, "crí": 1917, "Rober": 1918, "ponto": 1919, "24": 1920, "ingl": 1921, "end": 1922, "solu": 1923, "Francisco": 1924, "gio": 1925, "000": 1926, "matem": 1927, "identi": 1928, "und": 1929, "numa": 1930, "condi": 1931, "cole": 1932, "t,": 1933, "istro": 1934, "Ho": 1935, "surgi": 1936, "construção": 1937, "empre": 1938, "ng": 1939, "comer": 1940, "médi": 1941, "rando": 1942, "Lis": 1943, "subs": 1944, "freguesias": 1945, "dezembro": 1946, "anos.": 1947, "leste": 1948, "diz": 1949, "antiga": 1950, "lógi": 1951, "comple": 1952, "nte,": 1953, "alemã": 1954, "ses": 1955, "Sou": 1956, "país,": 1957, "janeiro": 1958, "observa": 1959, "lem": 1960, "zadas": 1961, "relaciona": 1962, "mesma": 1963, "ença": 1964, "ferência": 1965, "elas": 1966, "tenha": 1967, "séri": 1968, "ão.": 1969, "causa": 1970, "ugu": 1971, "fon": 1972, "Pra": 1973, "var": 1974, "fico": 1975, "cine": 1976, "informa": 1977, "elha": 1978, "cinco": 1979, "agos": 1980, "força": 1981, "cion": 1982, "vari": 1983, "geralmente": 1984, "ânti": 1985, "descober": 1986, "fici": 1987, "livre": 1988, "dos.": 1989, "Ao": 1990, "América": 1991, "chin": 1992, "poli": 1993, "Martin": 1994, "IB": 1995, "Lisbo": 1996, "estes": 1997, "quia": 1998, "é,": 1999, "Patri": 2000, "Regi": 2001, "manda": 2002, "183": 2003, "demo": 2004, "Casa": 2005, "conhecimento": 2006, "Ass": 2007, "mens": 2008, "outubro": 2009, "Internacional": 2010, "Amaz": 2011, "Emb": 2012, "isso": 2013, "atin": 2014, "norte-americano": 2015, "Can": 2016, "António": 2017, "desig": 2018, "inici": 2019, "land": 2020, "pria": 2021, "conquista": 2022, "Ni": 2023, "caus": 2024, "tele": 2025, "época": 2026, "Jogos": 2027, "conc": 2028, "Roma": 2029, "docu": 2030, "criação": 2031, "urban": 2032, "ais,": 2033, "Ter": 2034, "Manu": 2035, "Sil": 2036, "Cultura": 2037, "papel": 2038, "gis": 2039, "tória": 2040, "chamada": 2041, "dr": 2042, "cantora": 2043, "ture": 2044, "lhe": 2045, "técni": 2046, "Segundo": 2047, "Clu": 2048, "teoria": 2049, "front": 2050, "inglês": 2051, "Edu": 2052, "arte": 2053, "comum": 2054, "Nas": 2055, "posi": 2056, "comun": 2057, "popular": 2058, "Brasil,": 2059, "ry": 2060, "issão": 2061, "da.": 2062, "elé": 2063, "cto": 2064, "ftware": 2065, "Carlos": 2066, "diversos": 2067, "âne": 2068, "julho": 2069, "á,": 2070, "Jor": 2071, "ático": 2072, "migra": 2073, "San": 2074, "Henrique": 2075, "extre": 2076, "zona": 2077, "Mos": 2078, "veram": 2079, "op": 2080, "disso,": 2081, "4.": 2082, "çado": 2083, "aument": 2084, "Dia": 2085, "50": 2086, "linguagem": 2087, "fera": 2088, "Her": 2089, "espaço": 2090, "xo": 2091, "ridade": 2092, "u,": 2093, "s.": 2094, "quar": 2095, "parece": 2096, "outra": 2097, "\",": 2098, "ilhas": 2099, "média": 2100, "dê": 2101, "Constitu": 2102, "ções,": 2103, "áveis": 2104, "África": 2105, "mont": 2106, "ense": 2107, "port": 2108, "vid": 2109, "Tor": 2110, "estudo": 2111, "Prim": 2112, "right": 2113, "ensino": 2114, "quanti": 2115, "fazer": 2116, "características": 2117, "tró": 2118, "fez": 2119, "família": 2120, "ficou": 2121, "cas,": 2122, "diversas": 2123, "Institu": 2124, "Cab": 2125, "investi": 2126, "escre": 2127, "especi": 2128, "sin": 2129, "função": 2130, "simpl": 2131, "cima": 2132, "particular": 2133, "tít": 2134, "gisla": 2135, "posta": 2136, "reforma": 2137, "tam": 2138, "3.": 2139, "versão": 2140, "vila": 2141, "tecno": 2142, "posterior": 2143, "gram": 2144, "alto": 2145, "poeta": 2146, "El": 2147, "toma": 2148, "gue": 2149, "ria,": 2150, "dução": 2151, "continu": 2152, "Tamb": 2153, "Também": 2154, "crist": 2155, "Manuel": 2156, "explo": 2157, "tipos": 2158, "âma": 2159, "velmente": 2160, "ía": 2161, "verno": 2162, "ança": 2163, "gou": 2164, "vado": 2165, "Israel": 2166, "Segunda": 2167, "juda": 2168, "considerado": 2169, "incluem": 2170, "sociação": 2171, "relações": 2172, "ército": 2173, "bis": 2174, "emblei": 2175, "ista,": 2176, "valor": 2177, "5.": 2178, "ônia": 2179, "único": 2180, "180": 2181, "tório": 2182, "mó": 2183, "vereiro": 2184, "dre": 2185, "SD": 2186, "células": 2187, "contribu": 2188, "esses": 2189, "começa": 2190, "Ing": 2191, "tornou-se": 2192, "novembro": 2193, "série": 2194, "zu": 2195, "tamento": 2196, "porém": 2197, "mónio": 2198, "PC": 2199, "lamento": 2200, "afirma": 2201, "tia": 2202, "úst": 2203, "Val": 2204, "ético": 2205, "tion": 2206, "sempre": 2207, "exti": 2208, "refere": 2209, "din": 2210, "informação": 2211, "energia": 2212, "har": 2213, "ental": 2214, "right\"": 2215, "porque": 2216, "resultado": 2217, "bili": 2218, "tares": 2219, "ônio": 2220, "femin": 2221, "acesso": 2222, "setembro": 2223, "bran": 2224, "úde": 2225, "aproximada": 2226, "federa": 2227, "gent": 2228, "align=\"right\"": 2229, "encont": 2230, "mane": 2231, "us,": 2232, "participa": 2233, "rismo": 2234, "lança": 2235, "ena": 2236, "eleições": 2237, "nação": 2238, "zo": 2239, "cir": 2240, "Je": 2241, "densidade": 2242, "Outros": 2243, "ger": 2244, "junho": 2245, "Lou": 2246, "próprio": 2247, "precis": 2248, "natural": 2249, "mudan": 2250, "figu": 2251, "Espanha": 2252, "tos.": 2253, "lim": 2254, "tero": 2255, "promo": 2256, "nada": 2257, "agosto": 2258, "óso": 2259, "distribu": 2260, "cção": 2261, "independência": 2262, "ram-se": 2263, "cho": 2264, "lib": 2265, "íveis": 2266, "ficação": 2267, "org": 2268, "possuem": 2269, "seis": 2270, "âmbi": 2271, "das.": 2272, "maio": 2273, "finan": 2274, "atribu": 2275, "Freguesias": 2276, "Cos": 2277, "permane": 2278, "conf": 2279, "ismos": 2280, "marca": 2281, "terc": 2282, "testa": 2283, "aber": 2284, "central": 2285, "quad": 2286, "exten": 2287, "ida": 2288, "Quando": 2289, "ência,": 2290, "Ban": 2291, "curso": 2292, "c.": 2293, "oso": 2294, "Bran": 2295, "forne": 2296, "plos": 2297, "tenta": 2298, "ntu": 2299, "Apesar": 2300, "mostra": 2301, "censo": 2302, "abril": 2303, "aconte": 2304, "nacionais": 2305, "musica": 2306, "Assim": 2307, "tens": 2308, "animais": 2309, "embleia": 2310, "pol": 2311, "inten": 2312, "ofia": 2313, "março": 2314, "influência": 2315, "viol": 2316, "osa": 2317, "ário,": 2318, "organização": 2319, "mant": 2320, "igu": 2321, "proví": 2322, "Ja": 2323, "mundo.": 2324, "Capela": 2325, "siva": 2326, "micas": 2327, "linha": 2328, "usão": 2329, "apesar": 2330, "complex": 2331, "formar": 2332, "populacional": 2333, "23": 2334, "fundament": 2335, "aba": 2336, "Ser": 2337, "límpi": 2338, "indúst": 2339, "prin": 2340, "possi": 2341, "esca": 2342, "Há": 2343, "onas": 2344, "Embora": 2345, "seja,": 2346, "Polí": 2347, "internacional": 2348, "perador": 2349, "adores": 2350, "ixo": 2351, "Ed": 2352, "concent": 2353, "massa": 2354, "8.": 2355, "fé": 2356, "dó": 2357, "27": 2358, "te,": 2359, "responsável": 2360, "coloni": 2361, "rais": 2362, "calend": 2363, "Castelo": 2364, "instru": 2365, "africa": 2366, "histo": 2367, "entemente": 2368, "desa": 2369, "\".": 2370, "necess": 2371, "italiano": 2372, "lhas": 2373, "brasileira.": 2374, "menor": 2375, "eiro,": 2376, "jogador": 2377, "aproximadamente": 2378, "melhor": 2379, "Social": 2380, "ândia": 2381, "proces": 2382, "fas": 2383, "ígen": 2384, "ciência": 2385, "direito": 2386, "estados": 2387, "acadê": 2388, "Tem": 2389, "adi": 2390, "ner": 2391, "Méxi": 2392, "dia,": 2393, "dade,": 2394, "liam": 2395, "insta": 2396, "apresenta": 2397, "bor": 2398, "Cer": 2399, "ofere": 2400, "tinham": 2401, "Funda": 2402, "rina": 2403, "cientí": 2404, "zin": 2405, "Luís": 2406, "exce": 2407, "ga,": 2408, "missão": 2409, "Olímpi": 2410, "tex": 2411, "26": 2412, "elementos": 2413, "Fil": 2414, "lito": 2415, "ocident": 2416, "taxa": 2417, "projeto": 2418, "assum": 2419, "existem": 2420, "plantas": 2421, "fato": 2422, "Desde": 2423, "ânci": 2424, "d,": 2425, "indus": 2426, "semelha": 2427, "produtos": 2428, "mínio": 2429, "âmara": 2430, "superfíci": 2431, "compe": 2432, "28": 2433, "padr": 2434, "feitos": 2435, "eu": 2436, "enda": 2437, "fora": 2438, "termos": 2439, "escola": 2440, "Si": 2441, "Mui": 2442, "r.": 2443, "último": 2444, "(201": 2445, "tria": 2446, "velo": 2447, "modo": 2448, "rib": 2449, "(ou": 2450, "comb": 2451, "substitu": 2452, "Edi": 2453, "net": 2454, "oce": 2455, "Ru": 2456, "plane": 2457, "pli": 2458, "teratura": 2459, "Ha": 2460, "Ingla": 2461, "software": 2462, "rea": 2463, "minu": 2464, "imb": 2465, "presença": 2466, "William": 2467, "festa": 2468, "jornalista": 2469, "filóso": 2470, "problem": 2471, "partes": 2472, "plas": 2473, "vei": 2474, "obras": 2475, "simples": 2476, "Atl": 2477, "guel": 2478, "mobi": 2479, "rai": 2480, "cos.": 2481, "digo": 2482, "tário": 2483, "cendo": 2484, "irm": 2485, "agens": 2486, "nem": 2487, "Gra": 2488, "sociedade": 2489, "própria": 2490, "quem": 2491, "sion": 2492, "Rib": 2493, "Municipal": 2494, "vírus": 2495, "profis": 2496, "0%": 2497, "algo": 2498, "terras": 2499, "íci": 2500, "nica": 2501, "mulheres": 2502, "indústria": 2503, "Batalha": 2504, "controle": 2505, "antigo": 2506, "pedi": 2507, "Ama": 2508, "clima": 2509, "Fin": 2510, "tradicional": 2511, "serem": 2512, "100": 2513, "interior": 2514, "nen": 2515, "direitos": 2516, "partido": 2517, "assin": 2518, "vação": 2519, "Museu": 2520, "6.": 2521, "distrito": 2522, "van": 2523, "automobi": 2524, "Mas": 2525, "ta.": 2526, "Sua": 2527, "coloca": 2528, "trabalha": 2529, "cicl": 2530, "9.": 2531, "2019": 2532, "ministro": 2533, "Património": 2534, "conce": 2535, "arquitetura": 2536, "2020": 2537, "ron": 2538, "Jap": 2539, "britânico.": 2540, "especialmente": 2541, "materi": 2542, "vers": 2543, "municípios": 2544, "homens": 2545, "Instituto": 2546, "Clube": 2547, "nature": 2548, "educação": 2549, "mani": 2550, "7.": 2551, "bes": 2552, "neces": 2553, "pontos": 2554, "Verde": 2555, "geo": 2556, "agri": 2557, "2013,": 2558, "tubar": 2559, "levou": 2560, "Ga": 2561, "ais.": 2562, "grego": 2563, "PIB": 2564, "fol": 2565, "Paran": 2566, "estado-": 2567, "estado-uni": 2568, "atualmente": 2569, "tanto,": 2570, "edades": 2571, "representa": 2572, "legisla": 2573, "mentação": 2574, "espor": 2575, "Fu": 2576, "diretor": 2577, "mando": 2578, "sofre": 2579, "tantes": 2580, "tas,": 2581, "movi": 2582, "21": 2583, "mercado": 2584, "sucesso": 2585, "gresso": 2586, "desse": 2587, "(em": 2588, "recursos": 2589, "plement": 2590, "vul": 2591, "AD": 2592, "especí": 2593, "órg": 2594, "Monte": 2595, "ente,": 2596, "credita": 2597, "tudo": 2598, "Não": 2599, "ínas": 2600, "Frei": 2601, "estado-unidense": 2602, "existe": 2603, "Assembleia": 2604, "mio": 2605, "derro": 2606, "son,": 2607, "Rua": 2608, "Associação": 2609, "magn": 2610, "tent": 2611, "atividade": 2612, "istência": 2613, "dios": 2614, "livro": 2615, "gara": 2616, "reuni": 2617, "palavra": 2618, "i,": 2619, "Rei": 2620, "automobilista": 2621, "nave": 2622, "humanos": 2623, "dão": 2624, "Tu": 2625, "escra": 2626, "extra": 2627, "ístico": 2628, "bá": 2629, "somente": 2630, "evi": 2631, "clás": 2632, "Alguns": 2633, "flor": 2634, "Geór": 2635, "duz": 2636, "zer": 2637, "estuda": 2638, "tim": 2639, "descri": 2640, "apoio": 2641, "usu": 2642, "ólogo": 2643, "glo": 2644, "çambi": 2645, "estre": 2646, "luz": 2647, "normal": 2648, "alcan": 2649, "sécul": 2650, "ino.": 2651, "candida": 2652, "alta": 2653, "prova": 2654, "seguintes": 2655, "liga": 2656, "correspon": 2657, "consegui": 2658, "Serra": 2659, "existência": 2660, "funções": 2661, "público": 2662, "orde": 2663, "cidade,": 2664, "e.": 2665, "2018": 2666, "Gru": 2667, "mundial": 2668, "179": 2669, "pintor": 2670, "propor": 2671, "ago": 2672, "fevereiro": 2673, "equ": 2674, "Miguel": 2675, "centes": 2676, "condições": 2677, "transporte": 2678, "pção": 2679, "filme": 2680, "ização": 2681, "ferro": 2682, "País": 2683, "teiro": 2684, "CO": 2685, "novos": 2686, "junta": 2687, "Silva": 2688, "fonso": 2689, "idência": 2690, "gares": 2691, "única": 2692, "Presidente": 2693, "san": 2694, "inf": 2695, "morre": 2696, "bastante": 2697, "cató": 2698, "Santos": 2699, "Copa": 2700, "membro": 2701, "músico": 2702, "rigi": 2703, "dessa": 2704, "serviços": 2705, "samento": 2706, "diferen": 2707, "fes": 2708, "Char": 2709, "filho": 2710, "comunidade": 2711, "intro": 2712, "camin": 2713, "ulos": 2714, "cens": 2715, "princípi": 2716, "problemas": 2717, "existi": 2718, "últimos": 2719, "título": 2720, "eses": 2721, "costa": 2722, "Unidos,": 2723, "Bri": 2724, "Ben": 2725, "nacional,": 2726, "2000": 2727, "Lon": 2728, "gia,": 2729, "vendo": 2730, "Lista": 2731, "bio": 2732, "Ali": 2733, "setor": 2734, "anda": 2735, "Cu": 2736, "eventos": 2737, "interpre": 2738, "casa": 2739, "ha,": 2740, "neg": 2741, "sequência": 2742, "ismo,": 2743, "novas": 2744, "Itá": 2745, "judeus": 2746, "cate": 2747, "Er": 2748, "astro": 2749, "sor": 2750, "enci": 2751, "ina,": 2752, "forte": 2753, "gui": 2754, "peona": 2755, "ell": 2756, "primeiras": 2757, "pida": 2758, "ério": 2759, "chu": 2760, "ães": 2761, "n,": 2762, "tein": 2763, "álise": 2764, "Brasil.": 2765, "cidos": 2766, "inicia": 2767, "fonte": 2768, "ros,": 2769, "europe": 2770, "Governo": 2771, "Coimb": 2772, "a.C.": 2773, "culo": 2774, "metro": 2775, "filosofia": 2776, "Região": 2777, "lidera": 2778, "Fernando": 2779, "socia": 2780, "esco": 2781, "fess": 2782, "dica": 2783, "dest": 2784, "Men": 2785, "zam": 2786, "pesquisa": 2787, "ras,": 2788, "Gon": 2789, "mundo,": 2790, "Revolução": 2791, "registra": 2792, "fase": 2793, "posto": 2794, "Mor": 2795, "viam": 2796, "Depois": 2797, "zações": 2798, "Existem": 2799, "it": 2800, "ar.": 2801, "defen": 2802, "escolas": 2803, "pratica": 2804, "demons": 2805, "dendo": 2806, "crá": 2807, "locais": 2808, "Alex": 2809, "Vene": 2810, "acima": 2811, "desen": 2812, "ncipe": 2813, "del": 2814, "agricultura": 2815, "Vale": 2816, "indica": 2817, "compre": 2818, "Rús": 2819, "russo": 2820, "líder": 2821, "tadas": 2822, "imperador": 2823, "mo,": 2824, "emi": 2825, "empresas": 2826, "pequena": 2827, "argent": 2828, "Sistema": 2829, "tarde": 2830, "capacidade": 2831, "maneira": 2832, "conceito": 2833, "Conselho": 2834, "domínio": 2835, "âmbito": 2836, "I,": 2837, "profissi": 2838, "ércio": 2839, "erais": 2840, "quil": 2841, "sec": 2842, "cy": 2843, "historia": 2844, "vor": 2845, "cant": 2846, "especial": 2847, "DE": 2848, "administrativa": 2849, "||": 2850, "taman": 2851, "banda": 2852, "dispu": 2853, "raz": 2854, "prática": 2855, "gramas": 2856, "estrang": 2857, "import": 2858, "haria": 2859, "DNA": 2860, "objetivo": 2861, "alter": 2862, "ra.": 2863, "berto": 2864, "continua": 2865, "quele": 2866, "lá": 2867, "Bu": 2868, "redes": 2869, "Afonso": 2870, "física": 2871, "permiti": 2872, "natureza": 2873, "material": 2874, "madas": 2875, "consum": 2876, "ordem": 2877, "ânia": 2878, "ia,": 2879, "vão": 2880, "anal": 2881, "explica": 2882, "código": 2883, "recebeu": 2884, "úlio": 2885, "sexu": 2886, "ficas": 2887, "Vicente": 2888, "real": 2889, "denominada": 2890, "Comissão": 2891, "clube": 2892, "superfície": 2893, "utilizado": 2894, "conde": 2895, "mento,": 2896, "presente": 2897, "atmos": 2898, "calendário": 2899, "núcle": 2900, "estar": 2901, "hum": 2902, "políticos": 2903, "ritos": 2904, "informações": 2905, "bilh": 2906, "22": 2907, "artes": 2908, "tian": 2909, "lago": 2910, "trou": 2911, "Res": 2912, "mete": 2913, "deram": 2914, "comércio": 2915, "ões,": 2916, "decis": 2917, "forme": 2918, "indígen": 2919, "Atlânti": 2920, "29": 2921, "inta": 2922, "engenh": 2923, "nomia": 2924, "ára": 2925, "pia": 2926, "apare": 2927, "aten": 2928, "Pos": 2929, "Bibli": 2930, "Sul,": 2931, "vento": 2932, "atividades": 2933, "tran": 2934, "vídu": 2935, "mexi": 2936, "montan": 2937, "ADN": 2938, "terres": 2939, "remo": 2940, "jus": 2941, "gência": 2942, "Bas": 2943, "amí": 2944, "Abri": 2945, "cr": 2946, "evolução": 2947, "indivídu": 2948, "zou": 2949, "metade": 2950, "feita": 2951, "rein": 2952, "seguinte": 2953, "l.": 2954, "militares": 2955, "lema": 2956, "vio": 2957, "Mana": 2958, "organismos": 2959, "censos": 2960, "re,": 2961, "cru": 2962, "cei": 2963, "Cata": 2964, "peix": 2965, "enas": 2966, "físico": 2967, "Robert": 2968, "tale": 2969, "políticas": 2970, "essas": 2971, "5%": 2972, "lares": 2973, "quantidade": 2974, "referi": 2975, "arque": 2976, "argu": 2977, "diplo": 2978, "Deus": 2979, "impres": 2980, "Hi": 2981, "Demografia": 2982, "pré": 2983, "verdade": 2984, "ídos": 2985, "jas": 2986, "altura": 2987, "vir": 2988, "expan": 2989, "Den": 2990, "manu": 2991, "cinema": 2992, "Get": 2993, "importância": 2994, "inho": 2995, "relativamente": 2996, "respec": 2997, "nomes": 2998, "Paris": 2999, "Central": 3000, "patin": 3001, "ficar": 3002, "trica": 3003, "inclui": 3004, "Escola": 3005, "exer": 3006, "Au": 3007, "Ame": 3008, "bate": 3009, "criada": 3010, "cimentos": 3011, "Câmara": 3012, "Lam": 3013, "filósofo": 3014, "ica": 3015, "or,": 3016, "Pes": 3017, "viética": 3018, "empresa": 3019, "extensão": 3020, "tempo,": 3021, "Tho": 3022, "gé": 3023, "sema": 3024, "cerve": 3025, "evolu": 3026, "símb": 3027, "aumento": 3028, "ong": 3029, "espi": 3030, "1950": 3031, "Isso": 3032, "camada": 3033, "tradição": 3034, "interesse": 3035, "homem": 3036, "vez,": 3037, "dina": 3038, "ames": 3039, "compara": 3040, "estudos": 3041, "fosse": 3042, "bert": 3043, "IS": 3044, "ouro": 3045, "última": 3046, "perto": 3047, "lugares": 3048, "destru": 3049, "anex": 3050, "Pr": 3051, "Ir": 3052, "industri": 3053, "Jes": 3054, "ceram": 3055, "Inglaterra": 3056, "brica": 3057, "independente": 3058, "dá": 3059, "reia": 3060, "Geral": 3061, "chega": 3062, "Ana": 3063, "infe": 3064, "tenista": 3065, "campos": 3066, "Assim,": 3067, "demonstra": 3068, "dirigi": 3069, "media": 3070, "suge": 3071, "Miran": 3072, "composta": 3073, "protesta": 3074, "comunicação": 3075, "proteínas": 3076, "2013": 3077, "Domin": 3078, "atos": 3079, "Já": 3080, "ôno": 3081, "pren": 3082, "altitu": 3083, "micos": 3084, "sentido": 3085, "fronteira": 3086, "cau": 3087, "expres": 3088, "catego": 3089, "ampla": 3090, "1920": 3091, "Constituição": 3092, "sicos": 3093, "empen": 3094, "molécul": 3095, "40": 3096, "sidades": 3097, "ira": 3098, "estilo": 3099, "máqu": 3100, "francês.": 3101, "Novo": 3102, "álb": 3103, "gás": 3104, "míni": 3105, "unca": 3106, "Nações": 3107, "primeiro-": 3108, "resol": 3109, "ixa": 3110, "culos": 3111, "acredita": 3112, "defini": 3113, "ty": 3114, "tropas": 3115, "direção": 3116, "ami": 3117, "cros": 3118, "31": 3119, "lis": 3120, "Lutero": 3121, "ham": 3122, "Essa": 3123, "propriedade": 3124, "portanto,": 3125, "ocupação": 3126, "atingi": 3127, "Ad": 3128, "tus": 3129, "Goi": 3130, "king": 3131, "peonato": 3132, "dô": 3133, "Tim": 3134, "divis": 3135, "matemático": 3136, "caracteri": 3137, "sele": 3138, "tima": 3139, "americana": 3140, "considerada": 3141, "homen": 3142, "dura": 3143, "índi": 3144, "vege": 3145, "óxi": 3146, "Organ": 3147, "igreja": 3148, "Parlamento": 3149, "gos,": 3150, "usada": 3151, "Mais": 3152, "Man": 3153, "priva": 3154, "acei": 3155, "conhecidos": 3156, "estruturas": 3157, "computadores": 3158, "Campo": 3159, "fru": 3160, "Venezu": 3161, "Mari": 3162, "ud": 3163, "sicas": 3164, "Tai": 3165, "instituições": 3166, "órios": 3167, "religião": 3168, "tonela": 3169, "cap": 3170, "Guil": 3171, "sue": 3172, "qualidade": 3173, "agora": 3174, "permite": 3175, "nunca": 3176, "Tran": 3177, "identes": 3178, "Cabo": 3179, "ly": 3180, "wan": 3181, "números": 3182, "az": 3183, "tividade": 3184, "David": 3185, "Política": 3186, "lização": 3187, "ambiente": 3188, "regime": 3189, "educa": 3190, "Anos": 3191, "plin": 3192, "assina": 3193, "Rich": 3194, "cidade.": 3195, "aspec": 3196, "funciona": 3197, "População": 3198, "diu": 3199, "autori": 3200, "cuja": 3201, "faci": 3202, "bair": 3203, "diminu": 3204, "ânico": 3205, "saúde": 3206, "Moçambi": 3207, "recu": 3208, "linhas": 3209, "ok": 3210, "(a": 3211, "financ": 3212, "gráfica": 3213, "ajuda": 3214, "Gros": 3215, "Plu": 3216, "tornar": 3217, "Papa": 3218, "178": 3219, "descre": 3220, "divisão": 3221, "ço,": 3222, "lmente": 3223, "mas,": 3224, "za,": 3225, "instala": 3226, "tempos": 3227, "Demo": 3228, "He": 3229, "Paraná": 3230, "oxi": 3231, "orient": 3232, "ntes,": 3233, "ácio": 3234, "Primeira": 3235, "Ze": 3236, "fício": 3237, "Lin": 3238, "elemento": 3239, "cadas": 3240, "estavam": 3241, "mexica": 3242, "ciclista": 3243, "normalmente": 3244, "processos": 3245, "Liv": 3246, "efeito": 3247, "Vol": 3248, "estima": 3249, "Geor": 3250, "íram": 3251, "Mel": 3252, "bilhões": 3253, "2010,": 3254, "línguas": 3255, "Unido": 3256, "Mon": 3257, "ato": 3258, "hidro": 3259, "liberdade": 3260, "literatura": 3261, "tróle": 3262, "primeiro-ministro": 3263, "neste": 3264, "Costa": 3265, "bispo": 3266, "México": 3267, "devem": 3268, "compri": 3269, "usando": 3270, "diretamente": 3271, "etc.": 3272, "próximo": 3273, "taram": 3274, "meses": 3275, "general": 3276, "ocor": 3277, "ki": 3278, "Pen": 3279, "ura": 3280, "Cont": 3281, "Castro": 3282, "lógica": 3283, "meados": 3284, "Sob": 3285, "Mes": 3286, "taria": 3287, "km².": 3288, "Fl": 3289, "Ilha": 3290, "extinta": 3291, "Antigas": 3292, "regista": 3293, "medida": 3294, "Seu": 3295, "lia,": 3296, "constituição": 3297, "tamanho": 3298, "A.": 3299, "pequeno": 3300, "criado": 3301, "ín": 3302, "tornando": 3303, "eroporto": 3304, "âng": 3305, "IV": 3306, "hipó": 3307, "2021).": 3308, "desempen": 3309, "associa": 3310, "apoi": 3311, "contex": 3312, "hon": 3313, "filh": 3314, "computador": 3315, "2010": 3316, "p.": 3317, "ento": 3318, "radi": 3319, "Hu": 3320, "ambos": 3321, "creto": 3322, "edição": 3323, "ts": 3324, "atle": 3325, "Congresso": 3326, "libera": 3327, "pica": 3328, "len": 3329, "compon": 3330, "competi": 3331, "ade": 3332, "von": 3333, "ém,": 3334, "ilus": 3335, "reti": 3336, "primi": 3337, "Die": 3338, "Olímpicos": 3339, "nucle": 3340, "(que": 3341, "rido": 3342, "composto": 3343, "Tex": 3344, "Mato": 3345, "mora": 3346, "cristã": 3347, "nos,": 3348, "êm": 3349, "def": 3350, "profess": 3351, "exército": 3352, "ado,": 3353, "Educação": 3354, "bur": 3355, "fazem": 3356, "carbo": 3357, "usados": 3358, "isso,": 3359, "invas": 3360, "çar": 3361, "Charles": 3362, "demais": 3363, "província": 3364, "programas": 3365, "ólica": 3366, "imigra": 3367, "çul": 3368, "çulma": 3369, "oficialmente": 3370, "(200": 3371, "proto": 3372, "center": 3373, "venção": 3374, "ec": 3375, "ares,": 3376, "implement": 3377, "Liber": 3378, "provo": 3379, "chegou": 3380, "suí": 3381, "Mil": 3382, "fungos": 3383, "cois": 3384, "America": 3385, "ce,": 3386, "inaugu": 3387, "unidade": 3388, "177": 3389, "°C": 3390, "localizado": 3391, "Var": 3392, "Cat": 3393, "OS": 3394, "dodô": 3395, "musical": 3396, "cometas": 3397, "rial": 3398, "ed": 3399, "ito": 3400, "gando": 3401, "tações": 3402, "muçulma": 3403, "Grupo": 3404, "êmio": 3405, "Soviética": 3406, "tese": 3407, "eb": 3408, "Rodri": 3409, "Cruzeiro": 3410, "deci": 3411, "velocidade": 3412, "subst": 3413, "associ": 3414, "envi": 3415, "ligação": 3416, "Bre": 3417, "Jorge": 3418, "Popular": 3419, "dólares": 3420, "lândia": 3421, "sete": 3422, "gí": 3423, "anças": 3424, "análise": 3425, "Soci": 3426, "tador": 3427, "aparece": 3428, "produto": 3429, "lide": 3430, "administração": 3431, "nero": 3432, "eno": 3433, "Paulo,": 3434, "nterior": 3435, "canadense": 3436, "cios": 3437, "leis": 3438, "vermel": 3439, "nesta": 3440, "xe": 3441, "abaixo": 3442, "abor": 3443, "exclu": 3444, "ingles": 3445, "poderia": 3446, "nado": 3447, "pai": 3448, "governador": 3449, "Colô": 3450, "Colômbi": 3451, "Tratado": 3452, "houve": 3453, "PS": 3454, "cris": 3455, "Organização": 3456, "lico": 3457, "Ín": 3458, "ânio": 3459, "1997": 3460, "ue": 3461, "(como": 3462, "procu": 3463, "situação": 3464, "antigos": 3465, "vens": 3466, "essen": 3467, "ciclo": 3468, "versário": 3469, "guar": 3470, "asta": 3471, "Minist": 3472, "destes": 3473, "agre": 3474, "1970": 3475, "visi": 3476, "Pinh": 3477, "1960": 3478, "hab": 3479, "unha": 3480, "dista": 3481, "maté": 3482, "2011": 3483, "visto": 3484, "civil": 3485, "adap": 3486, "Har": 3487, "começaram": 3488, "trali": 3489, "resultados": 3490, "definição": 3491, "Campos": 3492, "equipa": 3493, "prov": 3494, "escala": 3495, "realizado": 3496, "soli": 3497, "peito": 3498, "oposição": 3499, "destaca": 3500, "Jean": 3501, "pá": 3502, "membra": 3503, "alde": 3504, "gam": 3505, "vino": 3506, "águ": 3507, "1918": 3508, "AN": 3509, "empresário": 3510, "Taiwan": 3511, "português.": 3512, "contem": 3513, "pens": 3514, "esquer": 3515, "cabe": 3516, "territórios": 3517, "rinha": 3518, "séculos": 3519, "1980": 3520, "Geografia": 3521, "toneladas": 3522, "petróle": 3523, "cujo": 3524, "Sim": 3525, "|-": 3526, "realiza": 3527, "âmica": 3528, "Ordem": 3529, "espí": 3530, "Wi": 3531, "seguir": 3532, "tenção": 3533, "Unidos.": 3534, "Parque": 3535, "oficiais": 3536, "ritual": 3537, "Futebol": 3538, "Berlim": 3539, "ude": 3540, "Ox": 3541, "rados": 3542, "zando": 3543, "altera": 3544, "Richard": 3545, "pital": 3546, "gios": 3547, "costu": 3548, "autor": 3549, "Eles": 3550, "vidas": 3551, "George": 3552, "Gr": 3553, "estação": 3554, "óxido": 3555, "Ros": 3556, "Comuni": 3557, "Minas": 3558, "bac": 3559, "Quinta": 3560, "aram": 3561, "cionais,": 3562, "austr": 3563, "contr": 3564, "inastia": 3565, "Chris": 3566, "175": 3567, "ro.": 3568, "reser": 3569, "celular": 3570, "Secre": 3571, "engenharia": 3572, "BSD": 3573, "align=\"center": 3574, "align=\"center\"": 3575, "ânica": 3576, "amea": 3577, "porâne": 3578, "igual": 3579, "Jer": 3580, "solo": 3581, "terceiro": 3582, "crise": 3583, "abran": 3584, "secund": 3585, "Europei": 3586, "Dez": 3587, "líqui": 3588, "ork": 3589, "carma": 3590, "movimentos": 3591, "New": 3592, "ho.": 3593, "solar": 3594, "éticos": 3595, "reconhe": 3596, "sejam": 3597, "Aus": 3598, "influenci": 3599, "bia": 3600, "ja,": 3601, "tiveram": 3602, "XVIII": 3603, "Guilher": 3604, "quim": 3605, "Mário": 3606, "descoberta": 3607, "inação": 3608, "vidos": 3609, "âncias": 3610, "planeta": 3611, "visita": 3612, "manifesta": 3613, "perce": 3614, "Federal": 3615, "Trans": 3616, "Geórgia": 3617, "çal": 3618, "Agos": 3619, "James": 3620, "fenô": 3621, "tivo,": 3622, "Ob": 3623, "manter": 3624, "serviço": 3625, "postos": 3626, "problema": 3627, "valores": 3628, "tável": 3629, "2001": 3630, "ote": 3631, "sia,": 3632, "escrita": 3633, "dia.": 3634, "Jose": 3635, "nau": 3636, "ama": 3637, "frequentemente": 3638, "ral,": 3639, "produzir": 3640, "acadêmico": 3641, "fícios": 3642, "gados": 3643, "1995": 3644, "A,": 3645, "ler": 3646, "Gil": 3647, "Chi": 3648, "2008": 3649, "coro": 3650, "Bel": 3651, "europei": 3652, "lip": 3653, "bos": 3654, "1991": 3655, "Getúlio": 3656, "tant": 3657, "volum": 3658, "romano": 3659, "povos": 3660, "dele": 3661, "H.": 3662, "litar": 3663, "comporta": 3664, "Está": 3665, "Pre": 3666, "Mat": 3667, "gel": 3668, "ana.": 3669, "depois,": 3670, "enten": 3671, "propriedades": 3672, "restri": 3673, "vidu": 3674, "historiador": 3675, "disse": 3676, "advo": 3677, "nou": 3678, "companh": 3679, "sobrevi": 3680, "unidades": 3681, "dependência": 3682, "(o": 3683, "sovi": 3684, "1900": 3685, "engenheiro": 3686, "contém": 3687, "escreveu": 3688, "II,": 3689, "criar": 3690, "turas": 3691, "ídas": 3692, "..": 3693, "iz": 3694, "solução": 3695, "níveis": 3696, "quilô": 3697, "filmes": 3698, "polita": 3699, "envolvimento": 3700, "Lisboa,": 3701, "1998": 3702, "go.": 3703, "mão": 3704, "reira,": 3705, "Lisboa": 3706, "And": 3707, "objetos": 3708, "põ": 3709, "oito": 3710, "pessoa": 3711, "publi": 3712, "máxi": 3713, "Ela": 3714, "idos": 3715, "áticas": 3716, "momento": 3717, "busca": 3718, "realizada": 3719, "tecnologia": 3720, "Guilherme": 3721, "Carval": 3722, "Freguesia": 3723, "Beat": 3724, "dada": 3725, "til": 3726, "chamados": 3727, "bora": 3728, "ficos": 3729, "Esse": 3730, "espacial": 3731, "mática": 3732, "individu": 3733, "ideia": 3734, "algum": 3735, "estado,": 3736, "ward": 3737, "arma": 3738, "Tal": 3739, "dando": 3740, "dedi": 3741, "topo": 3742, "BN": 3743, "Fundação": 3744, "Portugal,": 3745, "1996": 3746, "encontra-se": 3747, "Jul": 3748, "basque": 3749, "eir": 3750, "Estes": 3751, "blo": 3752, "posse": 3753, "gias": 3754, "sus": 3755, "resta": 3756, "ys": 3757, "trá": 3758, "dividido": 3759, "60": 3760, "preci": 3761, "Até": 3762, "avi": 3763, "referência": 3764, "padrão": 3765, "liter": 3766, "Arqui": 3767, "Roberto": 3768, "Lampi": 3769, "roqui": 3770, "órica": 3771, "tindo": 3772, "aliment": 3773, "Jesus": 3774, "efeitos": 3775, "g,": 3776, "Ara": 3777, "conserva": 3778, "partidos": 3779, "gente": 3780, "época,": 3781, "sul-": 3782, "americano.": 3783, "Japão": 3784, "australi": 3785, "micro": 3786, "tícul": 3787, "favor": 3788, "tida": 3789, "provavelmente": 3790, "partilha": 3791, "econó": 3792, "Bru": 3793, "Era": 3794, "our": 3795, "perman": 3796, "basti": 3797, "jos": 3798, "descobri": 3799, "computação": 3800, "fazendo": 3801, "ear": 3802, "raí": 3803, "Campeonato": 3804, "cidad": 3805, "totalmente": 3806, "futu": 3807, "mudanças": 3808, "então,": 3809, "identifica": 3810, "alguma": 3811, "ISBN": 3812, "aç": 3813, "televisão": 3814, "unal": 3815, "conju": 3816, "democra": 3817, "Vitória": 3818, "landês": 3819, "Idade": 3820, "compreen": 3821, "m,": 3822, "vador": 3823, "segurança": 3824, "naturais": 3825, "rapida": 3826, "Econo": 3827, "cia,": 3828, "publicado": 3829, "ga.": 3830, "armaz": 3831, "duzido": 3832, "ina.": 3833, "região.": 3834, "Oliv": 3835, "Ocident": 3836, "sio": 3837, "chefe": 3838, "tú": 3839, "Plutão": 3840, "atmosfera": 3841, "abora": 3842, "posições": 3843, "quiri": 3844, "ária,": 3845, "regra": 3846, "figura": 3847, "será": 3848, "Augu": 3849, "ções.": 3850, "municipal": 3851, "uns": 3852, "Eu": 3853, "Miranda": 3854, "juntamente": 3855, "Goiás": 3856, "Figu": 3857, "predomin": 3858, "Pla": 3859, "R.": 3860, "operação": 3861, "Canad": 3862, "cadeia": 3863, "álbum": 3864, "objeto": 3865, "gênio": 3866, "fontes": 3867, "tradicionais": 3868, "isó": 3869, "posteriormente": 3870, "ocas": 3871, "entra": 3872, "cará": 3873, "des,": 3874, "imagem": 3875, "Thomas": 3876, "casos": 3877, "ncial": 3878, "NU": 3879, "Gol": 3880, "1994": 3881, "conclu": 3882, "Soares": 3883, "cerveja": 3884, "1999": 3885, "Angra": 3886, "cê": 3887, "fá": 3888, "distribuição": 3889, "plano": 3890, "wi": 3891, "cultural": 3892, "jogos": 3893, "formado": 3894, "passar": 3895, "2005": 3896, "espécie": 3897, "Atual": 3898, "ref": 3899, "fundada": 3900, "Freud": 3901, "Leste": 3902, "/km².": 3903, "partícul": 3904, "fundamental": 3905, "oli": 3906, "dessas": 3907, "expressão": 3908, "evento": 3909, "Ainda": 3910, "França,": 3911, "Manaus": 3912, "bras": 3913, "lé": 3914, "Jac": 3915, "Alas": 3916, "2007": 3917, "bandeira": 3918, "vai": 3919, "temperaturas": 3920, "formam": 3921, "sust": 3922, "renda": 3923, "estraté": 3924, "Terc": 3925, "longa": 3926, "baixo": 3927, "fabrica": 3928, "2009": 3929, "Portugues": 3930, "Antônio": 3931, "cas.": 3932, "Pol": 3933, "francesa": 3934, "meteor": 3935, "americana.": 3936, "Moscou": 3937, "infra": 3938, "moléculas": 3939, "extrema": 3940, "adora": 3941, "método": 3942, "Pas": 3943, "assim,": 3944, "pequenos": 3945, "esfor": 3946, "dir": 3947, "ana,": 3948, "rás": 3949, "internacionais": 3950, "Cant": 3951, "metal": 3952, "trôni": 3953, "Ferreira": 3954, "pô": 3955, "forma,": 3956, "quest": 3957, "Prí": 3958, "alidades": 3959, "didos": 3960, "fix": 3961, "Flo": 3962, "mudança": 3963, "Outras": 3964, "ior": 3965, "pessoas.": 3966, "idio": 3967, "Bis": 3968, "rotei": 3969, "inos": 3970, "impa": 3971, "ação,": 3972, "mação": 3973, "destaque": 3974, "habitantes.": 3975, "psi": 3976, "consequ": 3977, "ficiente": 3978, "pequenas": 3979, "Exército": 3980, "efe": 3981, "rápi": 3982, "Fun": 3983, "seres": 3984, "gradu": 3985, "ocorreu": 3986, "comunica": 3987, "sel": 3988, "my": 3989, "ulares": 3990, "civi": 3991, "conhecidas": 3992, "descen": 3993, "arco": 3994, "ismo.": 3995, "tradições": 3996, "fundado": 3997, "mã": 3998, "cias": 3999, "alização": 4000, "Neg": 4001, "nº": 4002, "Jus": 4003, "isol": 4004, "cum": 4005, "4%": 4006, "Trib": 4007, "Universi": 4008, "153": 4009, "ech": 4010, "ã,": 4011, "Entretanto,": 4012, "Brasileira": 4013, "iniciou": 4014, "capita": 4015, "multi": 4016, "Neste": 4017, "Bibliografia": 4018, "2004": 4019, "materia": 4020, "óni": 4021, "Civil": 4022, "equipe": 4023, "pintu": 4024, "agrí": 4025, "hab/km².": 4026, "(censo": 4027, "são:": 4028, "timo": 4029, "armas": 4030, "judi": 4031, "novamente": 4032, "Ur": 4033, "funcion": 4034, "bido": 4035, "Sé": 4036, "dial,": 4037, "Grosso": 4038, "cargo": 4039, "culdade": 4040, "1990": 4041, "1992": 4042, "falta": 4043, "bano": 4044, "Abril": 4045, "putados": 4046, "Dou": 4047, "ric": 4048, "gadores": 4049, "registada": 4050, "foi:": 4051, "rico": 4052, "Sub": 4053, "osos": 4054, "particularmente": 4055, "abando": 4056, "dito": 4057, "contexto": 4058, "lias": 4059, "nidade": 4060, "bases": 4061, "matemática": 4062, "ardo": 4063, "confli": 4064, "lançado": 4065, "ficial": 4066, "revel": 4067, "Wor": 4068, "top": 4069, "reino": 4070, "experiência": 4071, "urânio": 4072, "Ani": 4073, "ann": 4074, "variedade": 4075, "Enquanto": 4076, "mecan": 4077, "frente": 4078, "secre": 4079, "paz": 4080, "difica": 4081, "caça": 4082, "fabe": 4083, "IP": 4084, "ardi": 4085, "Gonçal": 4086, "cá": 4087, "CP": 4088, "ley": 4089, "Martinho": 4090, "espanhol.": 4091, "jogo": 4092, "trabalhos": 4093, "terrestre": 4094, "avan": 4095}, "merges": [["d", "e"], ["d", "o"], ["r", "a"], ["e", "s"], ["n", "t"], ["d", "a"], ["c", "o"], ["o", "s"], ["a", "s"], ["r", "i"], ["r", "e"], ["t", "a"], ["i", "s"], ["o", "r"], ["m", "a"], ["ã", "o"], ["e", "r"], ["e", "m"], ["c", "a"], ["i", "n"], ["q", "u"], ["e", "nt"], ["c", "i"], ["a", "l"], ["r", "o"], ["e", "n"], ["t", "i"], ["p", "a"], ["e", "l"], ["co", "m"], ["s", "e"], ["a", "n"], ["t", "o"], ["ç", "ão"], ["qu", "e"], ["a", "r"], ["t", "e"], ["n", "o"], ["d", "i"], ["n", "a"], ["p", "o"], ["do", "s"], ["l", "i"], ["m", "ent"], ["e", "i"], ["u", "l"], ["n", "i"], ["s", "i"], ["t", "u"], ["1", "9"], ["g", "u"], ["s", "o"], ["p", "or"], ["u", "m"], ["r", "es"], ["o", "u"], ["o", "n"], ["v", "i"], ["o", "l"], ["co", "n"], ["u", "ma"], ["de", "s"], ["h", "a"], ["da", "s"], ["s", "u"], ["pa", "ra"], ["v", "a"], ["m", "o"], ["f", "i"], ["e", "x"], ["ri", "a"], ["p", "ro"], ["õ", "es"], ["l", "a"], ["t", "ra"], ["m", "i"], ["u", "s"], ["f", "o"], ["nt", "e"], ["da", "de"], ["n", "ci"], ["g", "i"], ["a", "m"], ["ment", "e"], ["p", "e"], ["d", "u"], ["com", "o"], ["l", "o"], ["2", "0"], ["p", "el"], ["ra", "m"], ["a", "t"], ["ra", "n"], ["h", "o"], ["u", "n"], ["t", "er"], ["v", "e"], ["g", "o"], ["p", "os"], ["ç", "ões"], ["a", "do"], ["v", "er"], ["p", "ri"], ["f", "or"], ["a", "nt"], ["m", "e"], ["is", "t"], ["es", "ta"], ["l", "e"], ["s", "ão"], ["is", "ta"], ["p", "i"], ["ment", "o"], ["a", "ção"], [")", "."], ["b", "i"], ["t", "r"], ["a", ","], ["ma", "is"], ["c", "e"], ["t", "os"], ["c", "ul"], ["fo", "i"], ["pa", "r"], ["E", "s"], ["é", "m"], ["s", "a"], ["co", "nt"], ["l", "u"], ["ri", "o"], ["c", "as"], ["p", "res"], ["t", "or"], ["ei", "ro"], ["h", "e"], ["a", "o"], ["v", "o"], ["1", "8"], ["m", "u"], ["tu", "ra"], ["m", "b"], ["s", "er"], ["g", "a"], ["co", "s"], ["e", "ra"], ["nci", "a"], ["t", "em"], ["p", "er"], ["m", "as"], ["nt", "es"], ["í", "s"], ["ei", "ra"], ["m", "in"], ["es", "t"], ["i", "a"], ["ç", "a"], ["f", "e"], ["ê", "s"], ["n", "ão"], ["l", "í"], ["b", "ra"], ["an", "do"], ["c", "u"], ["i", "m"], ["su", "a"], ["for", "ma"], ["si", "l"], ["g", "ra"], ["i", "l"], ["o", ","], ["-", "se"], ["n", "s"], ["on", "al"], ["r", "os"], ["C", "o"], ["co", "r"], ["v", "ol"], ["el", "e"], ["ent", "e"], ["E", "m"], ["ê", "ncia"], ["n", "e"], ["P", "a"], ["al", "i"], ["p", "re"], ["i", "nt"], ["m", "."], ["f", "u"], ["ti", "ca"], ["n", "os"], ["20", "0"], ["po", "de"], ["r", "u"], ["a", "is"], ["f", "a"], ["ent", "re"], ["z", "a"], ["ma", "i"], ["(", "m."], ["t", "as"], ["ta", "mb"], ["n", "do"], ["tamb", "ém"], ["ri", "ca"], ["c", "es"], ["en", "do"], ["R", "e"], ["pel", "a"], ["p", "en"], ["ci", "o"], ["p", "ul"], ["fi", "ca"], ["gu", "es"], ["n", "as"], ["ci", "onal"], ["c", "ri"], ["N", "o"], ["v", "el"], ["an", "o"], ["b", "ol"], ["a", "b"], ["A", "l"], ["se", "u"], ["c", "h"], ["pri", "m"], ["re", "i"], ["ci", "al"], ["ta", "l"], ["pel", "o"], ["p", "l"], ["se", "gu"], ["M", "a"], ["li", "ca"], ["con", "s"], ["t", "ro"], ["te", "bol"], ["j", "a"], ["so", "b"], ["os", ","], ["m", "es"], ["á", "rio"], ["f", "re"], ["ta", "do"], ["di", "a"], ["em", "b"], ["p", "es"], ["in", "a"], ["ma", "n"], ["c", "er"], ["o", "b"], ["20", "1"], ["u", "ni"], ["A", "s"], ["á", "ri"], ["a", "g"], ["ca", "r"], ["P", "or"], ["fu", "tebol"], ["ti", "co"], ["19", "9"], ["pa", "ís"], ["U", "ni"], ["O", "s"], ["b", "a"], ["n", "."], ["j", "u"], ["en", "s"], ["qu", "i"], ["a", "u"], ["par", "ti"], ["da", "des"], ["c", "í"], ["es", ","], ["ta", "r"], ["i", "r"], ["es", "te"], ["N", "a"], ["(", "n."], ["as", ","], ["d", "is"], ["po", "pul"], ["ti", "tu"], ["ri", "t"], ["pro", "du"], ["i", "de"], ["po", "lí"], ["p", "u"], ["nt", "o"], ["or", "te"], ["ma", "r"], ["er", "ra"], ["mai", "or"], ["p", "al"], ["f", "un"], ["c", "ent"], ["bra", "sil"], ["a", "da"], ["m", "os"], ["ti", "va"], ["ci", "dade"], ["â", "ni"], ["g", "e"], ["mu", "i"], ["in", "o"], ["tr", "u"], ["l", "h"], ["é", "cul"], ["t", "ri"], ["t", "es"], ["an", "os"], ["tr", "os"], ["S", "ão"], ["a", "."], ["m", "é"], ["b", "er"], ["f", "in"], ["p", "as"], ["i", "o"], ["ri", "s"], ["j", "e"], ["futebol", "ista"], ["C", "on"], ["t", "in"], ["re", "gi"], ["b", "e"], ["m", "en"], ["con", "he"], ["t", "en"], ["S", "e"], ["x", "i"], ["de", "n"], ["c", "ha"], ["v", "is"], ["sob", "re"], ["B", "ra"], ["int", "er"], ["g", "ran"], ["19", "7"], ["19", "8"], ["p", "r"], ["re", "la"], ["de", "r"], ["do", "r"], ["a", "d"], ["c", "lu"], ["pres", "ent"], ["b", "o"], ["g", "an"], ["S", "ant"], ["ra", "s"], ["fo", "ram"], ["at", "é"], ["o", "ri"], ["ó", "s"], ["C", "a"], ["de", "ra"], ["D", "e"], ["lo", "ca"], ["cont", "ra"], ["J", "o"], ["i", "ção"], ["g", "os"], ["g", "re"], ["ti", "v"], ["ri", "or"], ["g", "en"], ["ta", "dos"], ["pa", "n"], ["s", "em"], ["par", "te"], ["0", "0"], ["gi", "a"], ["écul", "o"], ["u", "r"], ["pe", "ra"], ["c", "re"], ["fe", "re"], ["pri", "nci"], ["b", "as"], ["is", "mo"], ["en", "vol"], ["conhe", "ci"], ["ç", "o"], ["i", "x"], ["do", ","], ["a", "p"], ["al", "gu"], ["fre", "gues"], ["ó", "ria"], ["c", "el"], ["ra", "nte"], ["19", "6"], ["G", "u"], ["ve", "z"], ["1", "7"], ["is", "te"], ["m", "er"], ["p", "é"], ["mu", "ni"], ["ment", "os"], ["am", "e"], ["I", "I"], ["Bra", "sil"], ["g", "em"], ["c", "l"], ["1", "5"], ["se", "us"], ["ar", "es"], ["M", "ar"], ["v", "al"], ["ca", "da"], ["brasil", "eiro"], ["ni", "o"], ["go", "ver"], ["cí", "pi"], ["19", "4"], ["L", "i"], ["in", "s"], ["b", "lica"], ["por", "ta"], ["ci", "a"], ["s", "endo"], ["at", "ri"], ["F", "ran"], ["cio", "na"], ["r", "á"], ["ári", "os"], ["p", "lo"], ["fi", "l"], ["V", "i"], ["ç", "as"], ["m", "un"], ["l", "in"], ["p", "ú"], ["á", "re"], ["A", "r"], ["z", "ação"], ["den", "se"], ["ei", "to"], ["por", "tu"], ["si", "m"], ["gu", "a"], ["ti", "vo"], ["ra", "l"], ["ant", "i"], ["j", "o"], ["b", "al"], ["in", "do"], ["nt", "i"], [")", ","], ["C", "h"], ["on", "de"], ["u", "ro"], ["as", "s"], ["po", "is"], ["po", "n"], ["e", ","], ["ex", "-"], ["in", "da"], ["19", "3"], ["bi", "ta"], ["M", "o"], ["nt", "a"], ["ame", "rica"], ["19", "5"], ["s", "éculo"], ["b", "an"], ["C", "ar"], ["no", "me"], ["ou", "tros"], ["ti", "cas"], ["in", "clu"], ["el", "a"], ["si", "ca"], ["e", "t"], ["f", "í"], ["tra", "s"], ["na", "cional"], ["gran", "de"], ["popul", "ação"], ["ant", "o"], ["t", "é"], ["era", "l"], ["ão", ","], ["esta", "du"], ["des", "envol"], ["es", "pe"], ["b", "u"], ["qu", "al"], ["tu", "al"], ["in", "g"], ["I", "n"], ["esta", "do"], ["com", "pos"], ["t", "re"], ["as", "."], ["l", "an"], ["vi", "mento"], ["P", "e"], ["s", "os"], ["est", "á"], ["ado", "r"], ["ca", "m"], ["a", "c"], ["Co", "m"], ["tra", "ns"], ["o", "na"], ["a", "os"], ["g", "al"], ["v", "en"], ["muni", "cípi"], ["P", "o"], ["co", "l"], ["fregues", "ia"], ["prim", "eiro"], ["f", "ran"], ["prim", "eira"], ["t", "á"], ["ei", "ros"], ["pr", "ó"], ["ê", "nci"], ["é", "s"], ["0", ","], ["z", "i"], ["es", "cri"], ["com", "e"], ["su", "as"], ["a", "tra"], ["o", "ria"], ["segu", "i"], ["1", "6"], ["iste", "ma"], ["t", "ó"], ["a", "inda"], ["polí", "tico"], ["M", "i"], ["es", "ti"], ["vi", "da"], ["R", "o"], ["ha", "bita"], ["mes", "mo"], ["to", ","], ["S", "o"], ["f", "er"], ["de", "pen"], ["L", "u"], ["ô", "ni"], ["re", "g"], ["n", "orte"], ["si", "dade"], ["pes", "so"], ["su", "b"], ["ces", "so"], ["n", "ú"], ["pen", "as"], ["fa", "z"], ["du", "rante"], ["regi", "ão"], ["is", ","], ["ta", "ção"], ["ul", "o"], ["ma", "da"], ["i", "as"], ["con", "si"], ["c", "he"], ["d", "ro"], ["qu", "ando"], ["P", "ar"], ["p", "la"], ["rit", "âni"], ["re", "ce"], ["in", "i"], ["h", "er"], ["ol", "o"], ["v", "ent"], ["di", "o"], ["cor", "re"], ["o", "ra"], ["b", "li"], ["A", "n"], ["estadu", "ni"], ["19", "2"], ["ist", "ória"], ["C", "as"], ["es", "s"], ["mi", "l"], ["á", "s"], ["pos", "su"], ["o", "fi"], ["B", "a"], ["or", "es"], ["a", "penas"], ["qu", "anto"], ["l", "on"], ["cul", "tura"], ["gover", "no"], ["princi", "pal"], ["di", "fere"], ["Por", "tu"], ["ist", "em"], ["ist", "as"], ["a", "dos"], ["h", "os"], ["ca", "l"], ["í", "vel"], ["mui", "to"], ["estaduni", "dense"], ["do", "res"], ["es", "tu"], ["ent", "es"], ["R", "i"], ["o", "i"], ["Es", "tados"], ["Q", "u"], ["s", "t"], ["to", "dos"], ["g", "as"], ["ti", "li"], ["S", "u"], ["b", "ritâni"], ["ca", "n"], ["si", "g"], ["D", "i"], ["re", "ali"], ["mi", "lh"], ["fun", "da"], ["emb", "ro"], ["is", "tra"], ["c", "ria"], ["vi", "a"], ["or", "gan"], ["do", "is"], ["c", "is"], ["E", "x"], ["de", "nt"], ["g", "ar"], ["f", "lu"], ["ra", ","], ["h", "as"], ["al", "em"], ["b", "ro"], ["h", "i"], ["co", ","], ["áre", "a"], ["s", "istema"], ["tra", "bal"], ["ó", "r"], ["so", "ci"], ["mi", "a"], ["n", "da"], ["da", "dos"], ["é", "r"], ["d", "ist"], ["an", "a"], ["ó", "gi"], ["cu", "r"], ["e", "ram"], ["mente", ","], ["vi", "do"], ["C", "am"], ["ou", "tras"], ["ve", "is"], ["j", "á"], ["cer", "ca"], ["es", "se"], ["li", "dade"], ["at", "or"], ["ide", "nte"], ["l", "ei"], ["v", "as"], ["pel", "os"], ["g", "ru"], ["li", "v"], ["ra", "ção"], ["gre", "ja"], ["de", "m"], ["a", "v"], ["va", "m"], ["v", "és"], ["v", "os"], ["ex", "em"], ["est", "ão"], ["u", "tili"], ["da", ","], ["vol", "u"], ["habita", "ntes"], ["m", "ú"], ["di", "re"], ["atri", "z"], ["ci", "mento"], ["pode", "m"], ["v", "í"], ["au", "to"], ["pú", "blica"], ["m", "ei"], ["V", "er"], ["P", "ro"], ["si", "do"], ["municípi", "o"], ["t", "í"], ["c", "en"], ["ári", "as"], ["ó", "ri"], ["l", "es"], ["s", "ul"], ["ex-", "futebolista"], ["tr", "ês"], ["nú", "mer"], ["mi", "li"], ["c", "in"], ["m", "el"], ["i", "ta"], ["Uni", "dos"], ["consi", "dera"], ["o", "f"], ["di", "ver"], ["ca", "pi"], ["ti", "cos"], ["k", "m"], ["cons", "tru"], ["in", "d"], ["al", ","], ["á", "ria"], ["d", "ência"], ["F", "re"], ["co", "u"], ["r", "í"], ["t", "el"], ["re", "li"], ["z", "ado"], ["tem", "po"], ["ção", ","], ["d", "é"], ["qu", "er"], ["im", "porta"], ["l", "ti"], ["do", "."], ["c", "la"], ["1", "4"], ["1", "0"], ["1", ","], ["i", "nte"], ["Sant", "a"], ["R", "io"], ["L", "e"], ["pa", "is"], ["des", "ta"], ["reli", "gi"], ["m", "or"], ["em", "ent"], ["america", "no"], ["a", "present"], ["e", "ta"], ["ant", "es"], ["in", "di"], ["qu", "en"], ["3", ","], ["re", "present"], ["ênci", "as"], ["h", "uma"], ["pan", "h"], ["ap", "ós"], ["O", "u"], ["nt", "er"], ["m", "ul"], ["e", "di"], ["c", "ês"], ["ca", ","], ["en", "contra"], ["Portu", "gal"], ["m", "á"], ["Gu", "erra"], ["co", "."], ["b", "em"], ["re", "m"], ["li", "a"], ["atra", "vés"], ["í", "o"], ["des", "de"], ["S", "ul"], ["gra", "fi"], ["parti", "r"], ["f", "al"], ["ag", "em"], ["D", "es"], ["s", ","], ["1", ")."], ["g", "n"], ["à", "s"], ["ra", "c"], ["os", "."], ["a", "pro"], ["J", "os"], ["A", "nt"], ["cons", "titu"], ["que", ","], ["T", "o"], ["il", "ha"], ["s", "as"], ["fran", "cês"], ["algu", "ns"], ["co", "la"], ["p", "ra"], ["tin", "ha"], ["ó", "rio"], ["f", "ei"], ["cha", "ma"], ["cont", "in"], ["min", "istra"], ["to", "do"], ["de", "pois"], ["de", "i"], ["al", "ém"], ["I", "s"], ["ri", "n"], ["G", "e"], ["19", "0"], ["I", "greja"], ["tor", "no"], ["po", "u"], ["ro", "u"], ["exem", "plo"], ["ter", "rit"], ["milh", "ões"], ["portu", "gues"], ["tra", "di"], ["F", "er"], ["2", ","], ["g", "ado"], ["at", "ro"], ["us", "a"], ["ç", "os"], ["v", "em"], ["c", "res"], ["n", "or"], ["bas", "e"], ["í", "cio"], ["du", "as"], ["tru", "tura"], ["co", "no"], ["mai", "oria"], ["ú", "lti"], ["per", "ío"], ["res", "ul"], ["g", "eral"], ["ca", "ção"], ["t", "h"], ["grafi", "a"], ["i", "dade"], ["gu", "ês"], ["t", "ê"], ["e", "dade"], ["Con", "s"], ["an", "d"], ["18", "9"], ["Se", "gu"], ["ar", "qui"], ["X", "I"], ["h", "á"], ["to", "u"], ["â", "ncia"], ["am", "bi"], ["pl", "an"], ["as", "e"], ["me", "di"], ["m", "is"], ["a", "cor"], ["ho", ","], ["an", "u"], ["á", "vel"], ["l", ","], ["ce", "u"], ["b", "ar"], ["mi", "ca"], ["pe", "ri"], ["S", "en"], ["com", "uni"], ["ju", "nto"], ["númer", "o"], ["es", "trutura"], ["es", "."], ["za", "da"], ["an", "i"], ["1", "2"], ["em", "ente"], ["a", "nte"], ["so", "l"], ["an", "eiro"], ["di", "al"], ["ú", "ni"], ["ti", "vi"], ["ano", "."], ["pé", "ci"], ["â", "n"], ["ri", "to"], ["á", "l"], ["forma", "ção"], ["ciona", "is"], ["lí", "n"], ["cial", "mente"], ["pres", "idente"], ["j", "or"], ["b", "ele"], ["brasileiro", "."], ["ob", "je"], ["M", "u"], ["D", "u"], ["E", "uro"], ["pe", "quen"], ["so", "n"], ["Na", "cional"], ["ci", "ais"], ["ti", "do"], ["a", "ções"], ["g", "in"], ["so", ","], ["ni", "fica"], ["i", "u"], ["N", "os"], ["es", "sa"], ["n", "al"], ["U", "m"], ["co", "lo"], ["a", "tual"], ["qu", "is"], ["v", "ários"], ["de", "z"], ["Es", "tado"], ["C", "ent"], ["r", "us"], ["acor", "do"], ["I", "nter"], ["em", "pres"], ["con", "cel"], ["polí", "tica"], ["Pa", "ra"], ["no", "va"], ["Re", "pública"], ["b", "ri"], ["organ", "i"], ["c", "ra"], ["1", "3"], ["c", "k"], ["es", "péci"], ["4", ","], ["E", "nt"], ["nt", "or"], ["el", "es"], ["ta", ","], ["en", "quanto"], ["in", "depen"], ["sig", "nifica"], ["ter", "min"], ["a", "re"], ["J", "u"], ["5", ","], ["ad", "ministra"], ["c", "é"], ["compos", "i"], ["f", "am"], ["t", "ão"], ["as", "sim"], ["men", "os"], ["tor", "es"], ["f", "rica"], ["de", "fin"], ["s", "í"], ["ar", "d"], ["in", "ha"], ["des", "te"], ["m", "í"], ["o", "bra"], ["ta", "mente"], ["ex", "ter"], ["t", "endo"], ["M", "un"], ["G", "o"], ["ma", "l"], ["el", "ei"], ["ca", "rac"], ["6", ","], ["N", "e"], ["es", "pa"], ["di", "rei"], ["so", "u"], ["ni", "a"], ["in", "ício"], ["I", "m"], ["o", "cu"], ["f", "ra"], ["desenvol", "vimento"], ["in", "flu"], ["o", "."], ["2", "5"], ["vis", "ão"], ["ab", "ri"], ["segu", "ndo"], ["o", "corre"], ["ser", "vi"], ["pas", "sa"], ["de", "u"], ["princi", "pais"], ["G", "ran"], ["el", "i"], ["cont", "ro"], ["alem", "ão"], ["F", "e"], ["ó", "nio"], ["es", "tra"], ["Jos", "é"], ["po", "vo"], ["Pa", "ulo"], ["S", "a"], ["ho", "ra"], ["8", ","], ["7", ","], ["tiv", "os"], ["h", "or"], ["ru", "z"], ["ent", "ão"], ["capi", "tal"], ["Jo", "ão"], ["gra", "ma"], ["v", "árias"], ["ul", "a"], ["18", "8"], ["a", "po"], ["m", "bi"], ["esta", "bele"], ["s", "ó"], ["com", "pu"], ["ri", "bu"], ["na", "tura"], ["Uni", "ver"], ["territ", "ório"], ["is", "to"], ["D", "o"], ["U", "ma"], ["B", "ar"], ["Es", "ta"], ["loca", "li"], ["h", "istória"], ["a", "ca"], ["ent", "a"], ["gran", "des"], ["bi", "lidade"], ["per", "mi"], ["to", "n"], ["C", "i"], ["gu", "erra"], ["ser", "va"], ["T", "e"], ["e", "cono"], ["fin", "al"], ["su", "r"], ["é", "ri"], ["possu", "i"], ["re", "n"], ["D", "."], ["l", "os"], ["portu", "guês"], ["fi", "r"], ["de", "no"], ["ma", "z"], ["de", ","], ["cul", "ar"], ["am", "b"], ["es", "panh"], ["algu", "mas"], ["mui", "tos"], ["pu", "blica"], ["pa", "re"], ["tor", "na"], ["ca", "do"], ["tê", "m"], ["li", "o"], ["20", "2"], ["si", "tu"], ["pesso", "as"], ["ita", "li"], ["ta", "is"], ["mun", "do"], ["l", "ha"], ["ç", "ou"], ["L", "a"], ["2", ")."], ["=", "\""], ["in", "as"], ["ro", ","], ["F", "oi"], ["N", "orte"], ["p", "ei"], ["er", "o"], ["m", "em"], ["te", "ra"], ["P", "i"], ["to", "tal"], ["an", "g"], ["c", "ente"], ["c", "ó"], ["perío", "do"], ["brasil", "eira"], ["é", "po"], ["e", "con"], ["ant", "o,"], ["pos", "ição"], ["produ", "ção"], ["olo", "gia"], ["pro", "te"], ["si", "co"], ["tiv", "as"], ["lon", "go"], ["c", "li"], ["o", "pera"], ["B", "o"], ["O", "r"], ["A", "le"], ["en", "e"], ["M", "é"], ["difere", "ntes"], ["escri", "tor"], ["9", ","], ["F", "or"], ["pes", "ar"], ["pode", "r"], ["pro", "cesso"], ["torno", "u"], ["f", "ro"], ["ci", "do"], ["de", "vido"], ["Por", "to"], ["C", "or"], ["z", "e"], ["mi", "co"], ["ent", "anto,"], ["ar", "t"], ["H", "en"], ["E", "n"], ["mei", "o"], ["a", "ta"], ["m", "emb"], ["te", "i"], ["te", "ri"], ["b", "el"], ["composi", "tor"], ["de", "nte"], ["lo", "go"], ["ces", "s"], ["18", "6"], ["ou", "tro"], ["al", "e"], ["6", ")."], ["estadunidense", "."], ["ri", "g"], ["ori", "gem"], ["ga", "ções"], ["pan", "ha"], ["di", "da"], ["pe", "c"], ["pro", "je"], ["mui", "tas"], ["f", "eito"], ["n", "um"], ["o", "grafia"], ["pú", "bli"], ["ocu", "pa"], ["volu", "ção"], ["u", "a"], ["tu", "r"], ["Ent", "re"], ["gru", "po"], ["ã", "os"], ["conheci", "do"], ["na", ","], ["Ma", "ria"], ["norte", "-"], ["L", "o"], ["dé", "cada"], ["km", "²"], ["nt", "os"], ["fí", "ci"], ["concel", "ho"], ["f", "is"], ["c", "ro"], ["cl", "as"], ["t", "he"], ["do", "min"], ["do", "u"], ["por", "te"], ["T", "he"], ["F", "a"], ["é", "tica"], ["se", "de"], ["mili", "tar"], ["ta", "nte"], ["religi", "os"], ["T", "ra"], ["qu", "ais"], ["X", "V"], ["vol", "ta"], ["N", "A"], ["deno", "min"], ["C", "ruz"], ["XI", "X"], ["te", "ve"], ["to", "das"], ["4", ")."], ["ho", "je"], ["principal", "mente"], ["país", "es"], ["H", "istória"], ["si", "fica"], ["b", "re"], ["7", ")."], ["da", "r"], ["li", "mi"], ["p", "lica"], ["des", "co"], ["se", "qu"], ["mo", "der"], ["tiva", "mente"], ["l", "ista"], ["s", "al"], ["5", ")."], ["di", "do"], ["pró", "pri"], ["1", "1"], ["R", "a"], ["te", "rior"], ["memb", "ros"], ["B", "er"], ["e", "qui"], ["fi", "m"], ["3", ")."], ["ci", "ent"], ["ca", "pa"], ["pel", "as"], ["di", "vi"], ["el", "ement"], ["ís", "ticas"], ["ca", "."], ["nt", "o,"], ["18", "7"], ["á", "gua"], ["ta", "n"], ["a", "das"], ["pé", "rio"], ["II", "I"], ["fe", "ri"], ["ex", "i"], ["Pe", "dro"], ["s", "en"], ["h", "ou"], ["Uni", "ão"], ["te", "c"], ["p", "ó"], ["Fran", "ça"], ["h", "ist"], ["qu", "atro"], ["P", "res"], ["o", "este"], ["Jo", "h"], ["ba", "ix"], ["lu", "gar"], ["a", "qu"], ["S", "ol"], ["da", "n"], ["Gran", "de"], ["C", "al"], ["ol", "ógi"], ["m", "on"], ["u", "so"], ["pas", "s"], ["ga", "da"], ["c", "em"], ["cé", "l"], ["ali", "gn"], ["inclu", "indo"], ["istem", "as"], ["ria", "m"], ["ex", "ist"], ["cor", "po"], ["vez", "es"], ["to", "ra"], ["í", "da"], ["mo", "de"], ["á", "tica"], ["i", "do"], ["p", "í"], ["al", "mente"], ["jor", "nal"], ["espanh", "ol"], ["res", "pon"], ["com", "p"], ["D", "a"], ["Vi", "la"], ["í", "do"], ["i", "ções"], ["es", "a"], ["g", "rá"], ["de", "ve"], ["le", "va"], ["britâni", "co"], ["g", "ação"], ["v", "in"], ["pro", "grama"], ["ti", "po"], ["ali", "dade"], ["importa", "nte"], ["rela", "ção"], ["ar", ","], ["j", "ul"], ["ri", "m"], ["8", ")."], ["g", "ens"], ["f", "os"], ["ter", "ra"], ["pos", "s"], ["3", "0"], ["Sen", "hora"], ["cos", ","], ["p", "ós"], ["9", ")."], ["n", "u"], ["za", "dos"], ["so", "cial"], ["fam", "í"], ["portugues", "a"], ["v", "ou"], ["l", "as"], ["carac", "ter"], ["se", "j"], ["qual", "quer"], ["ri", "que"], ["re", "de"], ["na", "."], ["s", "ões"], ["to", "."], ["d", "ri"], ["mú", "sica"], ["lo", "gia"], ["18", "5"], ["mul", "her"], ["me", "tros"], ["lín", "gua"], ["ês", "."], ["loca", "l"], ["align", "=\""], ["ap", "lica"], ["a", "co"], ["z", "ar"], ["in", "h"], ["T", "a"], ["lin", "gu"], ["ci", "dades"], ["F", "i"], ["C", "ol"], ["ve", "u"], ["ri", "os"], ["exter", "nas"], ["y", ","], ["ol", "í"], ["pe", "rior"], ["Ch", "ina"], ["ta", "da"], ["tem", "pera"], ["p", "h"], ["si", "a"], ["an", "os,"], ["al", "."], ["tu", "bro"], ["arqui", "te"], ["rei", "ra"], ["e", "du"], ["pla", "nt"], ["0", ")."], ["ção", "."], ["Fran", "cis"], ["e", "vent"], ["F", "o"], ["c", "le"], ["a", "tivi"], ["r", "é"], ["is", "."], ["ar", "ti"], ["e", "cu"], ["de", "ix"], ["de", "us"], ["ca", "ntor"], ["ra", "da"], ["Fre", "gues"], ["f", "en"], ["pes", "quis"], ["l", "ar"], ["go", ","], ["un", "da"], ["M", "e"], ["on", "s"], ["e", "uro"], ["C", "."], ["Co", "mo"], ["an", "o,"], ["trabal", "ho"], ["is", "e"], ["exemplo", ","], ["ci", "dent"], ["ran", "ça"], ["ç", "a,"], ["ci", "da"], ["Re", "ino"], ["W", "il"], ["ro", "ma"], ["di", "as"], ["emb", "ora"], ["w", "are"], ["ori", "gin"], ["no", ","], ["qu", "ase"], ["pres", "são"], ["ta", "ndo"], ["S", "éculo"], ["g", "ê"], ["No", "va"], ["ú", "s"], ["econ", "ô"], ["0", "."], ["vi", "l"], ["ja", "pon"], ["b", "us"], ["Euro", "pa"], ["con", "junto"], ["de", "ri"], ["du", "zi"], ["O", "ri"], ["ra", "el"], ["N", "or"], ["v", "es"], ["s", "ent"], ["z", ","], ["de", "termin"], ["Im", "pério"], ["cont", "a"], ["m", "pi"], ["D", "em"], ["T", "erra"], ["ter", "mo"], ["er", ","], ["a", "us"], ["tel", "o"], ["Nos", "sa"], ["i", "ma"], ["s", "istemas"], ["da", "do"], ["Univer", "sidade"], ["X", "X"], ["regi", "ões"], ["Li", "gações"], ["n", "ível"], ["espéci", "es"], ["A", "mé"], ["ra", "do"], ["ofi", "cial"], ["ex", "peri"], ["se", "ja"], ["me", "ta"], ["m", "ou"], ["est", "as"], ["a", "fir"], ["dent", "ro"], ["gover", "na"], ["compu", "tado"], ["qu", "í"], ["parti", "ci"], ["v", "ista"], ["tempera", "tura"], ["a", "tu"], ["ta", "x"], ["país", "."], ["pro", "b"], ["Al", "ém"], ["n", "ar"], ["dos", ","], ["chama", "do"], ["conheci", "da"], ["ris", "ta"], ["li", "ber"], ["cas", "o"], ["n", "ando"], ["un", "ho"], ["man", "ha"], ["ta", "nto"], ["f", "l"], ["d", "ra"], ["v", "esti"], ["E", "le"], ["fu", "nci"], ["de", "ntes"], ["S", "."], ["uni", "ver"], ["cent", "ro"], ["es", "col"], ["qu", "es"], ["c", "lo"], ["for", "ças"], ["mo", "vimento"], ["1", "."], ["su", "per"], ["m", "ol"], ["ér", "ci"], ["S", "al"], ["Ale", "manha"], ["hist", "óri"], ["ex", "ecu"], ["for", "mas"], ["esta", "va"], ["pro", "pri"], ["Par", "tido"], ["ca", "na"], ["g", "ol"], ["ma", ","], ["c", "us"], ["m", "orte"], ["z", "es"], ["tre", "in"], ["ca", "nto"], ["das", ","], ["M", "in"], ["da", "ta"], ["cres", "cimento"], ["va", "da"], ["R", "ob"], ["B", "e"], ["pas", "sou"], ["el", "o"], ["en", "gen"], ["h", "t"], ["Du", "rante"], ["ha", "via"], ["g", "era"], ["dei", "ra"], ["tos", ","], ["di", "ta"], ["Es", "te"], ["f", "t"], ["C", "ha"], ["em", "in"], ["no", "vo"], ["popul", "a"], ["gru", "pos"], ["tal", "ha"], ["ri", "as"], ["produ", "tor"], ["to", "da"], ["rei", "ro"], ["Cent", "ro"], ["apro", "xi"], ["res", "po"], ["ci", "pal"], ["tem", "bro"], ["C", "ul"], ["per", "ten"], ["en", "er"], ["Sant", "o"], ["A", "pós"], ["Po", "pul"], ["su", "perior"], ["prim", "eiros"], ["g", "res"], ["á", "r"], ["Mun", "dial"], ["te", "ria"], ["maior", "es"], ["econo", "mia"], ["us", "ado"], ["en", "de"], ["P", "er"], ["is", "ti"], ["g", "ador"], ["C", "ris"], ["M", "uni"], ["fre", "qu"], ["18", "4"], ["Pa", "ul"], ["P", "al"], ["respo", "ns"], ["ís", "tica"], ["res", ","], ["L", "ei"], ["ra", "r"], ["a", "mento"], ["A", "nti"], ["2", "."], ["inte", "gra"], ["se", "para"], ["B", "i"], ["produ", "zi"], ["de", "cla"], ["eira", "s"], ["n", "di"], ["ul", "as"], ["clas", "sifica"], ["no", "."], ["por", "to"], ["qu", "ista"], ["el", "eito"], ["segu", "nda"], ["com", "pl"], ["ca", "de"], ["Joh", "n"], ["ante", "rior"], ["fil", "os"], ["gu", "as"], ["pal", "av"], ["cur", "sos"], ["T", "i"], ["ins", "titu"], ["pou", "co"], ["v", "embro"], ["va", "ria"], ["Fe", "dera"], ["se", "x"], ["ul", "ar"], ["t", "l"], ["in", "e"], ["se", "ria"], ["poss", "ível"], ["el", "ho"], ["fran", "ces"], ["trein", "ador"], ["cam", "po"], ["mode", "lo"], ["Al", "gu"], ["produ", "z"], ["I", "ns"], ["áre", "as"], ["come", "çou"], ["importa", "ntes"], ["eira", ","], ["rece", "be"], ["pró", "xi"], ["c", "ni"], ["J", "aneiro"], ["la", "do"], ["c", "rí"], ["Rob", "er"], ["po", "nto"], ["2", "4"], ["ing", "l"], ["en", "d"], ["so", "lu"], ["Francis", "co"], ["gi", "o"], ["00", "0"], ["ma", "tem"], ["ide", "nti"], ["un", "d"], ["n", "uma"], ["con", "di"], ["co", "le"], ["t", ","], ["ist", "ro"], ["H", "o"], ["sur", "gi"], ["constru", "ção"], ["em", "pre"], ["n", "g"], ["com", "er"], ["mé", "di"], ["ran", "do"], ["L", "is"], ["sub", "s"], ["fregues", "ias"], ["dez", "embro"], ["anos", "."], ["l", "este"], ["di", "z"], ["anti", "ga"], ["l", "ógi"], ["comp", "le"], ["nte", ","], ["alem", "ã"], ["s", "es"], ["S", "ou"], ["país", ","], ["j", "aneiro"], ["ob", "serva"], ["l", "em"], ["za", "das"], ["rela", "ciona"], ["mes", "ma"], ["en", "ça"], ["fer", "ência"], ["el", "as"], ["ten", "ha"], ["s", "éri"], ["ão", "."], ["ca", "usa"], ["u", "gu"], ["f", "on"], ["P", "ra"], ["v", "ar"], ["fi", "co"], ["cin", "e"], ["in", "forma"], ["el", "ha"], ["cin", "co"], ["ag", "os"], ["for", "ça"], ["ci", "on"], ["va", "ri"], ["geral", "mente"], ["â", "nti"], ["desco", "ber"], ["fi", "ci"], ["liv", "re"], ["dos", "."], ["A", "o"], ["Amé", "rica"], ["ch", "in"], ["po", "li"], ["Mar", "tin"], ["I", "B"], ["Lis", "bo"], ["est", "es"], ["qu", "ia"], ["é", ","], ["P", "atri"], ["Re", "gi"], ["man", "da"], ["18", "3"], ["de", "mo"], ["Cas", "a"], ["conheci", "mento"], ["As", "s"], ["m", "ens"], ["ou", "tubro"], ["Inter", "nacional"], ["A", "maz"], ["E", "mb"], ["is", "so"], ["at", "in"], ["norte-", "americano"], ["C", "an"], ["Ant", "ónio"], ["de", "sig"], ["ini", "ci"], ["lan", "d"], ["p", "ria"], ["con", "quista"], ["N", "i"], ["ca", "us"], ["t", "ele"], ["épo", "ca"], ["Jo", "gos"], ["con", "c"], ["Ro", "ma"], ["do", "cu"], ["cria", "ção"], ["ur", "ban"], ["ais", ","], ["T", "er"], ["M", "anu"], ["S", "il"], ["Cul", "tura"], ["pa", "pel"], ["g", "is"], ["t", "ória"], ["cha", "mada"], ["d", "r"], ["canto", "ra"], ["tu", "re"], ["l", "he"], ["té", "cni"], ["Segu", "ndo"], ["C", "lu"], ["te", "oria"], ["fro", "nt"], ["ingl", "ês"], ["E", "du"], ["ar", "te"], ["com", "um"], ["N", "as"], ["pos", "i"], ["com", "un"], ["popul", "ar"], ["Brasil", ","], ["r", "y"], ["is", "são"], ["da", "."], ["el", "é"], ["c", "to"], ["ft", "ware"], ["Car", "los"], ["diver", "sos"], ["â", "ne"], ["jul", "ho"], ["á", ","], ["J", "or"], ["á", "tico"], ["mi", "gra"], ["S", "an"], ["Hen", "rique"], ["ex", "tre"], ["z", "ona"], ["M", "os"], ["ve", "ram"], ["o", "p"], ["dis", "so,"], ["4", "."], ["ç", "ado"], ["au", "ment"], ["D", "ia"], ["5", "0"], ["lingu", "agem"], ["f", "era"], ["H", "er"], ["espa", "ço"], ["x", "o"], ["ri", "dade"], ["u", ","], ["s", "."], ["qu", "ar"], ["pa", "rece"], ["ou", "tra"], ["\"", ","], ["il", "has"], ["mé", "dia"], ["d", "ê"], ["Cons", "titu"], ["ções", ","], ["á", "veis"], ["Á", "frica"], ["mo", "nt"], ["en", "se"], ["por", "t"], ["vi", "d"], ["T", "or"], ["estu", "do"], ["P", "rim"], ["rig", "ht"], ["ens", "ino"], ["qu", "anti"], ["faz", "er"], ["caracter", "ísticas"], ["tr", "ó"], ["fe", "z"], ["famí", "lia"], ["fi", "cou"], ["cas", ","], ["diver", "sas"], ["Ins", "titu"], ["C", "ab"], ["in", "vesti"], ["es", "cre"], ["espe", "ci"], ["s", "in"], ["fun", "ção"], ["sim", "pl"], ["ci", "ma"], ["parti", "cular"], ["tí", "t"], ["gis", "la"], ["pos", "ta"], ["re", "forma"], ["ta", "m"], ["3", "."], ["ver", "são"], ["vi", "la"], ["tec", "no"], ["pos", "terior"], ["g", "ram"], ["al", "to"], ["po", "eta"], ["E", "l"], ["to", "ma"], ["gu", "e"], ["ria", ","], ["du", "ção"], ["contin", "u"], ["T", "amb"], ["Tamb", "ém"], ["cri", "st"], ["Manu", "el"], ["ex", "plo"], ["ti", "pos"], ["â", "ma"], ["vel", "mente"], ["í", "a"], ["ver", "no"], ["an", "ça"], ["g", "ou"], ["va", "do"], ["Is", "rael"], ["Segu", "nda"], ["ju", "da"], ["considera", "do"], ["inclu", "em"], ["soci", "ação"], ["rela", "ções"], ["érci", "to"], ["b", "is"], ["emb", "lei"], ["ista", ","], ["val", "or"], ["5", "."], ["ôni", "a"], ["úni", "co"], ["18", "0"], ["tó", "rio"], ["m", "ó"], ["ve", "reiro"], ["d", "re"], ["S", "D"], ["cél", "ulas"], ["cont", "ribu"], ["ess", "es"], ["come", "ça"], ["In", "g"], ["tornou", "-se"], ["no", "vembro"], ["séri", "e"], ["z", "u"], ["ta", "mento"], ["por", "ém"], ["m", "ónio"], ["P", "C"], ["la", "mento"], ["afir", "ma"], ["ti", "a"], ["ú", "st"], ["V", "al"], ["é", "tico"], ["ti", "on"], ["sem", "pre"], ["ex", "ti"], ["re", "fere"], ["d", "in"], ["in", "formação"], ["ener", "gia"], ["h", "ar"], ["ent", "al"], ["right", "\""], ["por", "que"], ["resul", "tado"], ["bi", "li"], ["ta", "res"], ["ô", "nio"], ["f", "emin"], ["a", "cesso"], ["se", "tembro"], ["b", "ran"], ["ú", "de"], ["aproxi", "mada"], ["fe", "dera"], ["g", "ent"], ["align=\"", "right\""], ["en", "cont"], ["ma", "ne"], ["us", ","], ["partici", "pa"], ["ris", "mo"], ["lan", "ça"], ["en", "a"], ["elei", "ções"], ["na", "ção"], ["z", "o"], ["ci", "r"], ["J", "e"], ["den", "sidade"], ["Ou", "tros"], ["g", "er"], ["j", "unho"], ["L", "ou"], ["própri", "o"], ["pre", "cis"], ["natura", "l"], ["mu", "dan"], ["fi", "gu"], ["Es", "panha"], ["tos", "."], ["li", "m"], ["ter", "o"], ["pro", "mo"], ["na", "da"], ["agos", "to"], ["ó", "so"], ["dist", "ribu"], ["c", "ção"], ["indepen", "dência"], ["ram", "-se"], ["c", "ho"], ["li", "b"], ["í", "veis"], ["fica", "ção"], ["or", "g"], ["possu", "em"], ["se", "is"], ["â", "mbi"], ["das", "."], ["mai", "o"], ["fin", "an"], ["atri", "bu"], ["Fregues", "ias"], ["C", "os"], ["per", "mane"], ["con", "f"], ["is", "mos"], ["mar", "ca"], ["ter", "c"], ["t", "esta"], ["ab", "er"], ["cent", "ral"], ["qu", "ad"], ["ex", "ten"], ["i", "da"], ["Qu", "ando"], ["ênci", "a,"], ["B", "an"], ["cur", "so"], ["c", "."], ["os", "o"], ["B", "ran"], ["for", "ne"], ["pl", "os"], ["t", "enta"], ["nt", "u"], ["A", "pesar"], ["mos", "tra"], ["cen", "so"], ["abri", "l"], ["aco", "nte"], ["na", "cionais"], ["mu", "sica"], ["As", "sim"], ["t", "ens"], ["ani", "mais"], ["emblei", "a"], ["po", "l"], ["int", "en"], ["ofi", "a"], ["mar", "ço"], ["influ", "ência"], ["vi", "ol"], ["os", "a"], ["ário", ","], ["organi", "zação"], ["ma", "nt"], ["i", "gu"], ["pro", "ví"], ["J", "a"], ["mun", "do."], ["Ca", "pela"], ["si", "va"], ["mi", "cas"], ["lin", "ha"], ["us", "ão"], ["a", "pesar"], ["compl", "ex"], ["forma", "r"], ["popula", "cional"], ["2", "3"], ["funda", "ment"], ["ab", "a"], ["S", "er"], ["lí", "mpi"], ["ind", "úst"], ["pri", "n"], ["pos", "si"], ["es", "ca"], ["H", "á"], ["on", "as"], ["Emb", "ora"], ["sej", "a,"], ["P", "olí"], ["inter", "nacional"], ["pera", "dor"], ["ado", "res"], ["ix", "o"], ["E", "d"], ["con", "cent"], ["mas", "sa"], ["8", "."], ["f", "é"], ["d", "ó"], ["2", "7"], ["te", ","], ["respons", "ável"], ["colo", "ni"], ["ra", "is"], ["cal", "end"], ["Cas", "telo"], ["ins", "tru"], ["a", "frica"], ["h", "isto"], ["ent", "emente"], ["des", "a"], ["\"", "."], ["ne", "cess"], ["itali", "ano"], ["lh", "as"], ["brasileira", "."], ["men", "or"], ["eiro", ","], ["jo", "gador"], ["aproximada", "mente"], ["mel", "hor"], ["So", "cial"], ["ân", "dia"], ["pro", "ces"], ["f", "as"], ["í", "gen"], ["ci", "ência"], ["direi", "to"], ["esta", "dos"], ["aca", "dê"], ["T", "em"], ["a", "di"], ["n", "er"], ["Mé", "xi"], ["di", "a,"], ["dade", ","], ["li", "am"], ["ins", "ta"], ["apresent", "a"], ["b", "or"], ["C", "er"], ["o", "fere"], ["tinha", "m"], ["F", "unda"], ["ri", "na"], ["cient", "í"], ["z", "in"], ["Lu", "ís"], ["ex", "ce"], ["g", "a,"], ["mis", "são"], ["O", "límpi"], ["te", "x"], ["2", "6"], ["element", "os"], ["F", "il"], ["li", "to"], ["o", "cident"], ["tax", "a"], ["proje", "to"], ["ass", "um"], ["ex", "istem"], ["plant", "as"], ["fa", "to"], ["Des", "de"], ["â", "nci"], ["d", ","], ["ind", "us"], ["sem", "elha"], ["produ", "tos"], ["mí", "nio"], ["âma", "ra"], ["super", "fíci"], ["com", "pe"], ["2", "8"], ["pa", "dr"], ["fei", "tos"], ["e", "u"], ["en", "da"], ["fo", "ra"], ["ter", "mos"], ["es", "cola"], ["S", "i"], ["Mu", "i"], ["r", "."], ["últi", "mo"], ["(", "201"], ["t", "ria"], ["vel", "o"], ["mo", "do"], ["ri", "b"], ["(", "ou"], ["com", "b"], ["subs", "titu"], ["E", "di"], ["ne", "t"], ["o", "ce"], ["R", "u"], ["plan", "e"], ["p", "li"], ["tera", "tura"], ["H", "a"], ["Ing", "la"], ["so", "ftware"], ["re", "a"], ["min", "u"], ["i", "mb"], ["pres", "ença"], ["Wil", "liam"], ["f", "esta"], ["jornal", "ista"], ["fil", "óso"], ["prob", "lem"], ["par", "tes"], ["pl", "as"], ["v", "ei"], ["obra", "s"], ["simpl", "es"], ["A", "tl"], ["gu", "el"], ["mo", "bi"], ["ra", "i"], ["cos", "."], ["di", "go"], ["t", "ário"], ["c", "endo"], ["ir", "m"], ["ag", "ens"], ["n", "em"], ["G", "ra"], ["soci", "edade"], ["pró", "pria"], ["qu", "em"], ["si", "on"], ["Ri", "b"], ["Muni", "cipal"], ["ví", "rus"], ["pro", "fis"], ["0", "%"], ["al", "go"], ["ter", "ras"], ["í", "ci"], ["ni", "ca"], ["mulher", "es"], ["indúst", "ria"], ["Ba", "talha"], ["contro", "le"], ["anti", "go"], ["pe", "di"], ["A", "ma"], ["cli", "ma"], ["F", "in"], ["tradi", "cional"], ["se", "rem"], ["1", "00"], ["inte", "rior"], ["n", "en"], ["direi", "tos"], ["parti", "do"], ["ass", "in"], ["va", "ção"], ["Mu", "seu"], ["6", "."], ["dist", "rito"], ["v", "an"], ["auto", "mobi"], ["M", "as"], ["ta", "."], ["Su", "a"], ["co", "loca"], ["trabal", "ha"], ["ci", "cl"], ["9", "."], ["20", "19"], ["min", "istro"], ["Patri", "mónio"], ["con", "ce"], ["arquite", "tura"], ["20", "20"], ["ro", "n"], ["J", "ap"], ["britâni", "co."], ["espe", "cialmente"], ["ma", "teri"], ["ver", "s"], ["municípi", "os"], ["ho", "mens"], ["Institu", "to"], ["Clu", "be"], ["na", "ture"], ["edu", "cação"], ["ma", "ni"], ["7", "."], ["b", "es"], ["ne", "ces"], ["po", "ntos"], ["Ver", "de"], ["ge", "o"], ["ag", "ri"], ["201", "3,"], ["tu", "bar"], ["le", "vou"], ["G", "a"], ["ais", "."], ["gre", "go"], ["P", "IB"], ["f", "ol"], ["Pa", "ran"], ["estado", "-"], ["estado-", "uni"], ["atual", "mente"], ["ta", "nto,"], ["e", "dades"], ["represent", "a"], ["le", "gisla"], ["ment", "ação"], ["es", "por"], ["F", "u"], ["dire", "tor"], ["ma", "ndo"], ["so", "fre"], ["ta", "ntes"], ["tas", ","], ["mo", "vi"], ["2", "1"], ["mer", "cado"], ["su", "cesso"], ["gres", "so"], ["des", "se"], ["(", "em"], ["re", "cursos"], ["pl", "ement"], ["v", "ul"], ["A", "D"], ["espe", "cí"], ["ór", "g"], ["Mo", "nte"], ["ente", ","], ["cre", "dita"], ["tu", "do"], ["N", "ão"], ["í", "nas"], ["F", "rei"], ["estado-uni", "dense"], ["ex", "iste"], ["Ass", "embleia"], ["mi", "o"], ["der", "ro"], ["son", ","], ["R", "ua"], ["As", "sociação"], ["ma", "gn"], ["t", "ent"], ["ativi", "dade"], ["ist", "ência"], ["di", "os"], ["liv", "ro"], ["ga", "ra"], ["re", "uni"], ["palav", "ra"], ["i", ","], ["R", "ei"], ["automobi", "lista"], ["na", "ve"], ["huma", "nos"], ["d", "ão"], ["T", "u"], ["es", "cra"], ["ex", "tra"], ["ís", "tico"], ["b", "á"], ["so", "mente"], ["e", "vi"], ["cl", "ás"], ["Algu", "ns"], ["fl", "or"], ["Ge", "ór"], ["du", "z"], ["z", "er"], ["estu", "da"], ["ti", "m"], ["des", "cri"], ["apo", "io"], ["u", "su"], ["ó", "logo"], ["g", "lo"], ["ç", "ambi"], ["est", "re"], ["lu", "z"], ["nor", "mal"], ["al", "can"], ["s", "écul"], ["ino", "."], ["can", "dida"], ["al", "ta"], ["pro", "va"], ["segui", "ntes"], ["li", "ga"], ["cor", "respon"], ["con", "segui"], ["S", "erra"], ["exist", "ência"], ["fun", "ções"], ["públi", "co"], ["or", "de"], ["cidade", ","], ["e", "."], ["20", "18"], ["G", "ru"], ["mun", "dial"], ["17", "9"], ["pi", "ntor"], ["pro", "por"], ["a", "go"], ["fe", "vereiro"], ["e", "qu"], ["Mi", "guel"], ["cent", "es"], ["condi", "ções"], ["trans", "porte"], ["p", "ção"], ["fil", "me"], ["i", "zação"], ["fer", "ro"], ["Pa", "ís"], ["tei", "ro"], ["C", "O"], ["no", "vos"], ["ju", "nta"], ["Sil", "va"], ["fon", "so"], ["i", "dência"], ["g", "ares"], ["úni", "ca"], ["Pres", "idente"], ["s", "an"], ["in", "f"], ["mor", "re"], ["bas", "tante"], ["ca", "tó"], ["Sant", "os"], ["Co", "pa"], ["m", "embro"], ["mú", "sico"], ["ri", "gi"], ["des", "sa"], ["servi", "ços"], ["sa", "mento"], ["difere", "n"], ["f", "es"], ["Ch", "ar"], ["fil", "ho"], ["comuni", "dade"], ["int", "ro"], ["ca", "min"], ["ul", "os"], ["c", "ens"], ["prin", "cípi"], ["problem", "as"], ["ex", "isti"], ["últi", "mos"], ["tít", "ulo"], ["es", "es"], ["cos", "ta"], ["Unidos", ","], ["B", "ri"], ["B", "en"], ["nacional", ","], ["200", "0"], ["L", "on"], ["gi", "a,"], ["v", "endo"], ["L", "ista"], ["bi", "o"], ["A", "li"], ["se", "tor"], ["an", "da"], ["C", "u"], ["event", "os"], ["inter", "pre"], ["cas", "a"], ["ha", ","], ["ne", "g"], ["sequ", "ência"], ["ismo", ","], ["no", "vas"], ["I", "tá"], ["ju", "deus"], ["ca", "te"], ["E", "r"], ["as", "tro"], ["s", "or"], ["en", "ci"], ["in", "a,"], ["for", "te"], ["gu", "i"], ["pe", "ona"], ["el", "l"], ["primeira", "s"], ["pi", "da"], ["é", "rio"], ["ch", "u"], ["ã", "es"], ["n", ","], ["te", "in"], ["ál", "ise"], ["Brasil", "."], ["ci", "dos"], ["ini", "cia"], ["fo", "nte"], ["ros", ","], ["euro", "pe"], ["Go", "verno"], ["Co", "imb"], ["a.", "C."], ["cul", "o"], ["me", "tro"], ["filos", "ofia"], ["Regi", "ão"], ["li", "dera"], ["Fer", "nando"], ["so", "cia"], ["es", "co"], ["f", "ess"], ["di", "ca"], ["des", "t"], ["M", "en"], ["z", "am"], ["pesquis", "a"], ["ras", ","], ["G", "on"], ["mun", "do,"], ["Re", "volução"], ["reg", "istra"], ["f", "ase"], ["pos", "to"], ["M", "or"], ["vi", "am"], ["De", "pois"], ["za", "ções"], ["Ex", "istem"], ["i", "t"], ["ar", "."], ["de", "fen"], ["escol", "as"], ["pra", "tica"], ["dem", "ons"], ["de", "ndo"], ["c", "rá"], ["loca", "is"], ["Al", "ex"], ["V", "ene"], ["a", "cima"], ["des", "en"], ["nci", "pe"], ["de", "l"], ["agri", "cultura"], ["V", "ale"], ["indi", "ca"], ["com", "pre"], ["R", "ús"], ["rus", "so"], ["lí", "der"], ["ta", "das"], ["im", "perador"], ["mo", ","], ["em", "i"], ["empres", "as"], ["pequen", "a"], ["ar", "gent"], ["S", "istema"], ["tar", "de"], ["capa", "cidade"], ["man", "eira"], ["conc", "eito"], ["Cons", "elho"], ["do", "mínio"], ["âmbi", "to"], ["I", ","], ["profis", "si"], ["ér", "cio"], ["era", "is"], ["qu", "il"], ["se", "c"], ["c", "y"], ["histo", "ria"], ["v", "or"], ["ca", "nt"], ["espe", "cial"], ["D", "E"], ["administra", "tiva"], ["|", "|"], ["ta", "man"], ["ban", "da"], ["dis", "pu"], ["ra", "z"], ["pr", "ática"], ["gram", "as"], ["estra", "ng"], ["im", "port"], ["ha", "ria"], ["D", "NA"], ["obje", "tivo"], ["al", "ter"], ["ra", "."], ["ber", "to"], ["contin", "ua"], ["qu", "ele"], ["l", "á"], ["B", "u"], ["re", "des"], ["A", "fonso"], ["fí", "sica"], ["permi", "ti"], ["nature", "za"], ["materi", "al"], ["ma", "das"], ["cons", "um"], ["or", "dem"], ["âni", "a"], ["i", "a,"], ["v", "ão"], ["an", "al"], ["ex", "plica"], ["có", "digo"], ["recebe", "u"], ["ú", "lio"], ["sex", "u"], ["fi", "cas"], ["Vi", "cente"], ["re", "al"], ["denomin", "ada"], ["Com", "issão"], ["clu", "be"], ["superfíci", "e"], ["utili", "zado"], ["con", "de"], ["mento", ","], ["pres", "ente"], ["at", "mos"], ["calend", "ário"], ["nú", "cle"], ["esta", "r"], ["h", "um"], ["polí", "ticos"], ["ri", "tos"], ["informa", "ções"], ["bi", "lh"], ["2", "2"], ["ar", "tes"], ["ti", "an"], ["la", "go"], ["tro", "u"], ["R", "es"], ["me", "te"], ["de", "ram"], ["com", "ércio"], ["ões", ","], ["de", "cis"], ["for", "me"], ["ind", "ígen"], ["Atl", "ânti"], ["2", "9"], ["int", "a"], ["engen", "h"], ["no", "mia"], ["á", "ra"], ["pi", "a"], ["a", "pare"], ["at", "en"], ["P", "os"], ["Bi", "bli"], ["Sul", ","], ["vent", "o"], ["ativi", "dades"], ["tra", "n"], ["ví", "du"], ["m", "exi"], ["mont", "an"], ["AD", "N"], ["ter", "res"], ["re", "mo"], ["j", "us"], ["g", "ência"], ["B", "as"], ["am", "í"], ["A", "bri"], ["c", "r"], ["e", "volução"], ["indi", "vídu"], ["z", "ou"], ["meta", "de"], ["fei", "ta"], ["re", "in"], ["segui", "nte"], ["l", "."], ["mili", "tares"], ["le", "ma"], ["vi", "o"], ["M", "ana"], ["organ", "ismos"], ["cens", "os"], ["re", ","], ["c", "ru"], ["c", "ei"], ["Ca", "ta"], ["pei", "x"], ["en", "as"], ["fí", "sico"], ["Rober", "t"], ["ta", "le"], ["polí", "ticas"], ["ess", "as"], ["5", "%"], ["l", "ares"], ["quanti", "dade"], ["re", "feri"], ["ar", "que"], ["ar", "gu"], ["di", "plo"], ["De", "us"], ["im", "pres"], ["H", "i"], ["Dem", "ografia"], ["pr", "é"], ["ver", "dade"], ["í", "dos"], ["j", "as"], ["al", "tura"], ["vi", "r"], ["ex", "pan"], ["D", "en"], ["man", "u"], ["cine", "ma"], ["G", "et"], ["import", "ância"], ["in", "ho"], ["rela", "tivamente"], ["res", "pec"], ["no", "mes"], ["Pa", "ris"], ["Cent", "ral"], ["pa", "tin"], ["fica", "r"], ["t", "rica"], ["inclu", "i"], ["Es", "cola"], ["ex", "er"], ["A", "u"], ["A", "me"], ["ba", "te"], ["cria", "da"], ["ci", "mentos"], ["C", "âmara"], ["L", "am"], ["filóso", "fo"], ["i", "ca"], ["or", ","], ["P", "es"], ["vi", "ética"], ["empres", "a"], ["exten", "são"], ["tempo", ","], ["T", "ho"], ["g", "é"], ["se", "ma"], ["cer", "ve"], ["e", "volu"], ["sí", "mb"], ["au", "mento"], ["on", "g"], ["es", "pi"], ["195", "0"], ["Is", "so"], ["ca", "mada"], ["tradi", "ção"], ["inter", "esse"], ["ho", "mem"], ["vez", ","], ["d", "ina"], ["am", "es"], ["com", "para"], ["estu", "dos"], ["fos", "se"], ["ber", "t"], ["I", "S"], ["ou", "ro"], ["últi", "ma"], ["per", "to"], ["lu", "gares"], ["des", "tru"], ["an", "ex"], ["P", "r"], ["I", "r"], ["indus", "tri"], ["J", "es"], ["ce", "ram"], ["Ingla", "terra"], ["b", "rica"], ["indepen", "dente"], ["d", "á"], ["re", "ia"], ["G", "eral"], ["che", "ga"], ["A", "na"], ["in", "fe"], ["ten", "ista"], ["cam", "pos"], ["Assim", ","], ["demons", "tra"], ["di", "rigi"], ["me", "dia"], ["su", "ge"], ["Mi", "ran"], ["compos", "ta"], ["pro", "testa"], ["comuni", "cação"], ["prote", "ínas"], ["201", "3"], ["Do", "min"], ["at", "os"], ["J", "á"], ["ô", "no"], ["pre", "n"], ["al", "titu"], ["mi", "cos"], ["sent", "ido"], ["front", "eira"], ["ca", "u"], ["ex", "pres"], ["cate", "go"], ["am", "pla"], ["19", "20"], ["Constitu", "ição"], ["si", "cos"], ["em", "pen"], ["mol", "écul"], ["4", "0"], ["si", "dades"], ["i", "ra"], ["esti", "lo"], ["má", "qu"], ["francês", "."], ["No", "vo"], ["ál", "b"], ["g", "ás"], ["mí", "ni"], ["un", "ca"], ["Na", "ções"], ["primeiro", "-"], ["res", "ol"], ["ix", "a"], ["cul", "os"], ["a", "credita"], ["defin", "i"], ["t", "y"], ["tro", "pas"], ["dire", "ção"], ["a", "mi"], ["c", "ros"], ["3", "1"], ["l", "is"], ["Lu", "tero"], ["ha", "m"], ["Es", "sa"], ["propri", "edade"], ["porta", "nto,"], ["ocupa", "ção"], ["atin", "gi"], ["A", "d"], ["tu", "s"], ["G", "oi"], ["k", "ing"], ["peona", "to"], ["d", "ô"], ["T", "im"], ["di", "vis"], ["matem", "ático"], ["carac", "teri"], ["s", "ele"], ["ti", "ma"], ["america", "na"], ["considera", "da"], ["ho", "men"], ["du", "ra"], ["í", "ndi"], ["ve", "ge"], ["ó", "xi"], ["Or", "gan"], ["i", "greja"], ["Par", "lamento"], ["g", "os,"], ["us", "ada"], ["M", "ais"], ["M", "an"], ["pri", "va"], ["ac", "ei"], ["conheci", "dos"], ["estrutura", "s"], ["computado", "res"], ["Cam", "po"], ["f", "ru"], ["Vene", "zu"], ["Ma", "ri"], ["u", "d"], ["si", "cas"], ["Ta", "i"], ["institu", "ições"], ["óri", "os"], ["religi", "ão"], ["ton", "ela"], ["ca", "p"], ["Gu", "il"], ["su", "e"], ["qu", "alidade"], ["ago", "ra"], ["permi", "te"], ["n", "unca"], ["T", "ran"], ["ide", "ntes"], ["Cab", "o"], ["l", "y"], ["w", "an"], ["númer", "os"], ["a", "z"], ["tivi", "dade"], ["Da", "vid"], ["Polí", "tica"], ["li", "zação"], ["ambi", "ente"], ["regi", "me"], ["edu", "ca"], ["A", "nos"], ["pl", "in"], ["ass", "ina"], ["Ri", "ch"], ["cidade", "."], ["as", "pec"], ["funci", "ona"], ["Popul", "ação"], ["di", "u"], ["auto", "ri"], ["cu", "ja"], ["fa", "ci"], ["ba", "ir"], ["di", "minu"], ["âni", "co"], ["sa", "úde"], ["Mo", "çambi"], ["re", "cu"], ["lin", "has"], ["o", "k"], ["(", "a"], ["finan", "c"], ["grá", "fica"], ["a", "juda"], ["G", "ros"], ["P", "lu"], ["tor", "nar"], ["Pa", "pa"], ["17", "8"], ["des", "cre"], ["di", "visão"], ["ç", "o,"], ["l", "mente"], ["mas", ","], ["z", "a,"], ["insta", "la"], ["tem", "pos"], ["Dem", "o"], ["H", "e"], ["Paran", "á"], ["o", "xi"], ["ori", "ent"], ["ntes", ","], ["á", "cio"], ["Prim", "eira"], ["Z", "e"], ["fí", "cio"], ["L", "in"], ["element", "o"], ["ca", "das"], ["esta", "vam"], ["mexi", "ca"], ["cicl", "ista"], ["normal", "mente"], ["proces", "sos"], ["Li", "v"], ["e", "feito"], ["V", "ol"], ["esti", "ma"], ["Ge", "or"], ["í", "ram"], ["M", "el"], ["bilh", "ões"], ["201", "0,"], ["lín", "guas"], ["Uni", "do"], ["M", "on"], ["a", "to"], ["hi", "dro"], ["liber", "dade"], ["li", "teratura"], ["tró", "le"], ["primeiro-", "ministro"], ["n", "este"], ["Cos", "ta"], ["bis", "po"], ["Méxi", "co"], ["de", "vem"], ["com", "pri"], ["us", "ando"], ["dire", "tamente"], ["et", "c."], ["próxi", "mo"], ["ta", "ram"], ["mes", "es"], ["gen", "eral"], ["o", "cor"], ["k", "i"], ["P", "en"], ["u", "ra"], ["Co", "nt"], ["Cas", "tro"], ["lógi", "ca"], ["me", "ados"], ["S", "ob"], ["M", "es"], ["ta", "ria"], ["km²", "."], ["F", "l"], ["I", "lha"], ["exti", "nta"], ["Anti", "gas"], ["reg", "ista"], ["medi", "da"], ["Se", "u"], ["li", "a,"], ["constitu", "ição"], ["taman", "ho"], ["A", "."], ["pequen", "o"], ["cria", "do"], ["í", "n"], ["tor", "nando"], ["ero", "porto"], ["ân", "g"], ["I", "V"], ["hi", "pó"], ["202", "1)."], ["des", "empen"], ["as", "socia"], ["apo", "i"], ["cont", "ex"], ["h", "on"], ["fi", "lh"], ["computado", "r"], ["201", "0"], ["p", "."], ["ent", "o"], ["ra", "di"], ["H", "u"], ["amb", "os"], ["cre", "to"], ["edi", "ção"], ["t", "s"], ["at", "le"], ["Con", "gresso"], ["lib", "era"], ["pi", "ca"], ["l", "en"], ["com", "pon"], ["compe", "ti"], ["a", "de"], ["v", "on"], ["ém", ","], ["il", "us"], ["re", "ti"], ["pri", "mi"], ["Di", "e"], ["Olímpi", "cos"], ["nu", "cle"], ["(", "que"], ["ri", "do"], ["compos", "to"], ["T", "ex"], ["Ma", "to"], ["mo", "ra"], ["crist", "ã"], ["nos", ","], ["ê", "m"], ["de", "f"], ["pro", "fess"], ["ex", "ército"], ["ado", ","], ["Edu", "cação"], ["b", "ur"], ["faz", "em"], ["car", "bo"], ["us", "ados"], ["is", "so,"], ["in", "vas"], ["ç", "ar"], ["Char", "les"], ["de", "mais"], ["proví", "ncia"], ["pro", "gramas"], ["ó", "lica"], ["i", "migra"], ["ç", "ul"], ["çul", "ma"], ["ofi", "cialmente"], ["(", "200"], ["pro", "to"], ["cent", "er"], ["ven", "ção"], ["e", "c"], ["ar", "es,"], ["im", "plement"], ["Li", "ber"], ["pro", "vo"], ["che", "gou"], ["su", "í"], ["M", "il"], ["fun", "gos"], ["co", "is"], ["Ame", "rica"], ["ce", ","], ["ina", "ugu"], ["uni", "dade"], ["17", "7"], ["°", "C"], ["locali", "zado"], ["V", "ar"], ["C", "at"], ["O", "S"], ["do", "dô"], ["musica", "l"], ["come", "tas"], ["ri", "al"], ["e", "d"], ["i", "to"], ["g", "ando"], ["ta", "ções"], ["mu", "çulma"], ["Gru", "po"], ["ê", "mio"], ["So", "viética"], ["tes", "e"], ["e", "b"], ["Ro", "dri"], ["Cruz", "eiro"], ["de", "ci"], ["velo", "cidade"], ["sub", "st"], ["as", "soci"], ["en", "vi"], ["li", "gação"], ["B", "re"], ["Jor", "ge"], ["Popul", "ar"], ["dó", "lares"], ["l", "ândia"], ["se", "te"], ["g", "í"], ["an", "ças"], ["an", "álise"], ["So", "ci"], ["tado", "r"], ["a", "parece"], ["produ", "to"], ["li", "de"], ["administra", "ção"], ["n", "ero"], ["en", "o"], ["Paul", "o,"], ["nte", "rior"], ["cana", "dense"], ["ci", "os"], ["le", "is"], ["ver", "mel"], ["n", "esta"], ["x", "e"], ["aba", "ixo"], ["ab", "or"], ["ex", "clu"], ["ing", "les"], ["pode", "ria"], ["na", "do"], ["pa", "i"], ["governa", "dor"], ["Col", "ô"], ["Colô", "mbi"], ["Tra", "tado"], ["hou", "ve"], ["P", "S"], ["cri", "s"], ["Organ", "ização"], ["li", "co"], ["Í", "n"], ["âni", "o"], ["199", "7"], ["u", "e"], ["(", "como"], ["pro", "cu"], ["situ", "ação"], ["anti", "gos"], ["v", "ens"], ["ess", "en"], ["ci", "clo"], ["vers", "ário"], ["gu", "ar"], ["as", "ta"], ["Min", "ist"], ["des", "tes"], ["ag", "re"], ["197", "0"], ["vis", "i"], ["P", "inh"], ["196", "0"], ["ha", "b"], ["un", "ha"], ["d", "ista"], ["ma", "té"], ["201", "1"], ["vis", "to"], ["ci", "vil"], ["ada", "p"], ["H", "ar"], ["começa", "ram"], ["tra", "li"], ["resul", "tados"], ["defin", "ição"], ["Cam", "pos"], ["equi", "pa"], ["pro", "v"], ["esca", "la"], ["reali", "zado"], ["so", "li"], ["p", "eito"], ["o", "posição"], ["desta", "ca"], ["Je", "an"], ["p", "á"], ["mem", "bra"], ["al", "de"], ["g", "am"], ["v", "ino"], ["á", "gu"], ["19", "18"], ["A", "N"], ["empres", "ário"], ["Tai", "wan"], ["português", "."], ["cont", "em"], ["pen", "s"], ["es", "quer"], ["ca", "be"], ["territ", "órios"], ["rin", "ha"], ["sécul", "os"], ["198", "0"], ["Ge", "ografia"], ["tonela", "das"], ["pe", "tróle"], ["cu", "jo"], ["S", "im"], ["|", "-"], ["reali", "za"], ["â", "mica"], ["Or", "dem"], ["es", "pí"], ["W", "i"], ["segu", "ir"], ["ten", "ção"], ["Unidos", "."], ["Par", "que"], ["ofi", "ciais"], ["ri", "tual"], ["Fu", "tebol"], ["Ber", "lim"], ["u", "de"], ["O", "x"], ["ra", "dos"], ["z", "ando"], ["al", "tera"], ["Rich", "ard"], ["pi", "tal"], ["gi", "os"], ["cos", "tu"], ["au", "tor"], ["E", "les"], ["vi", "das"], ["Geor", "ge"], ["G", "r"], ["esta", "ção"], ["óxi", "do"], ["R", "os"], ["Co", "muni"], ["M", "inas"], ["ba", "c"], ["Qu", "inta"], ["a", "ram"], ["ciona", "is,"], ["aus", "tr"], ["cont", "r"], ["inas", "tia"], ["Ch", "ris"], ["17", "5"], ["ro", "."], ["res", "er"], ["cel", "ular"], ["Se", "cre"], ["engen", "haria"], ["B", "SD"], ["align=\"", "center"], ["align=\"center", "\""], ["âni", "ca"], ["ame", "a"], ["por", "âne"], ["igu", "al"], ["J", "er"], ["so", "lo"], ["terc", "eiro"], ["cri", "se"], ["ab", "ran"], ["sec", "und"], ["Euro", "pei"], ["De", "z"], ["lí", "qui"], ["or", "k"], ["car", "ma"], ["movi", "mentos"], ["Ne", "w"], ["ho", "."], ["sol", "ar"], ["é", "ticos"], ["re", "conhe"], ["sej", "am"], ["A", "us"], ["influ", "enci"], ["bi", "a"], ["j", "a,"], ["ti", "veram"], ["XV", "III"], ["Guil", "her"], ["qu", "im"], ["M", "ário"], ["descober", "ta"], ["in", "ação"], ["vi", "dos"], ["ânci", "as"], ["plan", "eta"], ["vis", "ita"], ["mani", "festa"], ["per", "ce"], ["Federa", "l"], ["Tran", "s"], ["Geór", "gia"], ["ç", "al"], ["A", "gos"], ["J", "ames"], ["fen", "ô"], ["tivo", ","], ["O", "b"], ["ma", "nter"], ["servi", "ço"], ["pos", "tos"], ["prob", "lema"], ["val", "ores"], ["tá", "vel"], ["200", "1"], ["o", "te"], ["si", "a,"], ["escri", "ta"], ["dia", "."], ["Jos", "e"], ["na", "u"], ["a", "ma"], ["frequ", "entemente"], ["ral", ","], ["produz", "ir"], ["acadê", "mico"], ["fíci", "os"], ["ga", "dos"], ["199", "5"], ["A", ","], ["l", "er"], ["G", "il"], ["Ch", "i"], ["200", "8"], ["co", "ro"], ["B", "el"], ["euro", "pei"], ["li", "p"], ["b", "os"], ["199", "1"], ["Get", "úlio"], ["ta", "nt"], ["vol", "um"], ["roma", "no"], ["po", "vos"], ["de", "le"], ["H", "."], ["li", "tar"], ["com", "porta"], ["Es", "tá"], ["P", "re"], ["M", "at"], ["g", "el"], ["an", "a."], ["depois", ","], ["ent", "en"], ["propri", "edades"], ["res", "tri"], ["vi", "du"], ["historia", "dor"], ["dis", "se"], ["ad", "vo"], ["no", "u"], ["com", "panh"], ["sobre", "vi"], ["uni", "dades"], ["depen", "dência"], ["(", "o"], ["so", "vi"], ["19", "00"], ["engenh", "eiro"], ["cont", "ém"], ["escre", "veu"], ["II", ","], ["cri", "ar"], ["tura", "s"], ["í", "das"], [".", "."], ["i", "z"], ["solu", "ção"], ["n", "íveis"], ["quil", "ô"], ["fil", "mes"], ["poli", "ta"], ["envol", "vimento"], ["Lisbo", "a,"], ["199", "8"], ["go", "."], ["m", "ão"], ["rei", "ra,"], ["Lisbo", "a"], ["An", "d"], ["obje", "tos"], ["p", "õ"], ["oi", "to"], ["pesso", "a"], ["pu", "bli"], ["má", "xi"], ["E", "la"], ["i", "dos"], ["á", "ticas"], ["mo", "mento"], ["bus", "ca"], ["reali", "zada"], ["tecno", "logia"], ["Guilher", "me"], ["Car", "val"], ["Fregues", "ia"], ["Be", "at"], ["da", "da"], ["ti", "l"], ["chama", "dos"], ["bo", "ra"], ["fi", "cos"], ["Es", "se"], ["espa", "cial"], ["má", "tica"], ["indi", "vidu"], ["ide", "ia"], ["algu", "m"], ["esta", "do,"], ["w", "ard"], ["ar", "ma"], ["T", "al"], ["da", "ndo"], ["de", "di"], ["to", "po"], ["B", "N"], ["Funda", "ção"], ["Portugal", ","], ["199", "6"], ["encontra", "-se"], ["J", "ul"], ["bas", "que"], ["ei", "r"], ["Es", "tes"], ["b", "lo"], ["pos", "se"], ["gi", "as"], ["su", "s"], ["res", "ta"], ["y", "s"], ["tr", "á"], ["divi", "dido"], ["6", "0"], ["pre", "ci"], ["A", "té"], ["a", "vi"], ["re", "ferência"], ["padr", "ão"], ["li", "ter"], ["Ar", "qui"], ["Rober", "to"], ["Lam", "pi"], ["ro", "qui"], ["ó", "rica"], ["tin", "do"], ["ali", "ment"], ["Jes", "us"], ["e", "feitos"], ["g", ","], ["A", "ra"], ["con", "serva"], ["parti", "dos"], ["g", "ente"], ["épo", "ca,"], ["sul", "-"], ["americano", "."], ["Jap", "ão"], ["aus", "trali"], ["mi", "cro"], ["tí", "cul"], ["fa", "vor"], ["ti", "da"], ["prova", "velmente"], ["parti", "lha"], ["econ", "ó"], ["B", "ru"], ["E", "ra"], ["ou", "r"], ["per", "man"], ["bas", "ti"], ["j", "os"], ["desco", "bri"], ["compu", "tação"], ["faz", "endo"], ["e", "ar"], ["ra", "í"], ["Cam", "peonato"], ["cida", "d"], ["total", "mente"], ["fu", "tu"], ["mudan", "ças"], ["ent", "ão,"], ["identi", "fica"], ["algu", "ma"], ["IS", "BN"], ["a", "ç"], ["tele", "visão"], ["un", "al"], ["con", "ju"], ["demo", "cra"], ["Vi", "tória"], ["land", "ês"], ["I", "dade"], ["compre", "en"], ["m", ","], ["va", "dor"], ["segu", "rança"], ["natura", "is"], ["ra", "pida"], ["E", "cono"], ["ci", "a,"], ["publica", "do"], ["ga", "."], ["ar", "maz"], ["duzi", "do"], ["ina", "."], ["região", "."], ["O", "liv"], ["O", "cident"], ["si", "o"], ["che", "fe"], ["t", "ú"], ["Plu", "tão"], ["atmos", "fera"], ["ab", "ora"], ["pos", "ições"], ["qui", "ri"], ["ária", ","], ["re", "gra"], ["figu", "ra"], ["ser", "á"], ["A", "ugu"], ["ções", "."], ["muni", "cipal"], ["un", "s"], ["E", "u"], ["Miran", "da"], ["junta", "mente"], ["Goi", "ás"], ["Fi", "gu"], ["pre", "domin"], ["P", "la"], ["R", "."], ["opera", "ção"], ["Can", "ad"], ["cade", "ia"], ["álb", "um"], ["obje", "to"], ["gê", "nio"], ["fo", "ntes"], ["tradi", "cionais"], ["is", "ó"], ["posterior", "mente"], ["o", "cas"], ["ent", "ra"], ["car", "á"], ["des", ","], ["ima", "gem"], ["Tho", "mas"], ["cas", "os"], ["nci", "al"], ["N", "U"], ["G", "ol"], ["199", "4"], ["con", "clu"], ["So", "ares"], ["cerve", "ja"], ["199", "9"], ["An", "gra"], ["c", "ê"], ["f", "á"], ["distribu", "ição"], ["pl", "ano"], ["w", "i"], ["cultura", "l"], ["jo", "gos"], ["forma", "do"], ["pass", "ar"], ["200", "5"], ["espéci", "e"], ["A", "tual"], ["re", "f"], ["funda", "da"], ["Fre", "ud"], ["L", "este"], ["/", "km²."], ["par", "tícul"], ["fundament", "al"], ["o", "li"], ["des", "sas"], ["ex", "pressão"], ["event", "o"], ["A", "inda"], ["Fran", "ça,"], ["Mana", "us"], ["bra", "s"], ["l", "é"], ["J", "ac"], ["Al", "as"], ["200", "7"], ["ban", "deira"], ["va", "i"], ["temperatura", "s"], ["forma", "m"], ["su", "st"], ["re", "nda"], ["estra", "té"], ["Ter", "c"], ["lon", "ga"], ["baix", "o"], ["fa", "brica"], ["200", "9"], ["Portu", "gues"], ["Ant", "ônio"], ["cas", "."], ["P", "ol"], ["frances", "a"], ["mete", "or"], ["america", "na."], ["Mos", "cou"], ["in", "fra"], ["molécul", "as"], ["extre", "ma"], ["ado", "ra"], ["mé", "todo"], ["P", "as"], ["assim", ","], ["pequen", "os"], ["es", "for"], ["di", "r"], ["an", "a,"], ["rá", "s"], ["inter", "nacionais"], ["C", "ant"], ["me", "tal"], ["tr", "ôni"], ["Fer", "reira"], ["p", "ô"], ["forma", ","], ["qu", "est"], ["P", "rí"], ["ali", "dades"], ["di", "dos"], ["fi", "x"], ["F", "lo"], ["mudan", "ça"], ["Ou", "tras"], ["i", "or"], ["pesso", "as."], ["i", "dio"], ["B", "is"], ["ro", "tei"], ["in", "os"], ["im", "pa"], ["ação", ","], ["ma", "ção"], ["desta", "que"], ["habitantes", "."], ["p", "si"], ["con", "sequ"], ["fici", "ente"], ["pequen", "as"], ["Ex", "ército"], ["e", "fe"], ["rá", "pi"], ["F", "un"], ["ser", "es"], ["gra", "du"], ["ocorre", "u"], ["comuni", "ca"], ["s", "el"], ["m", "y"], ["ul", "ares"], ["ci", "vi"], ["conheci", "das"], ["des", "cen"], ["ar", "co"], ["ismo", "."], ["tradi", "ções"], ["funda", "do"], ["m", "ã"], ["ci", "as"], ["ali", "zação"], ["Ne", "g"], ["n", "º"], ["J", "us"], ["is", "ol"], ["c", "um"], ["4", "%"], ["T", "rib"], ["Univer", "si"], ["15", "3"], ["e", "ch"], ["ã", ","], ["Entre", "tanto,"], ["Brasil", "eira"], ["inici", "ou"], ["capi", "ta"], ["mul", "ti"], ["N", "este"], ["Bibli", "ografia"], ["200", "4"], ["ma", "teria"], ["ó", "ni"], ["Ci", "vil"], ["equi", "pe"], ["pi", "ntu"], ["ag", "rí"], ["hab", "/km²."], ["(", "censo"], ["são", ":"], ["ti", "mo"], ["ar", "mas"], ["ju", "di"], ["nova", "mente"], ["U", "r"], ["funci", "on"], ["bi", "do"], ["S", "é"], ["di", "al,"], ["Gros", "so"], ["car", "go"], ["cul", "dade"], ["199", "0"], ["199", "2"], ["fal", "ta"], ["b", "ano"], ["Abri", "l"], ["pu", "tados"], ["D", "ou"], ["ri", "c"], ["gado", "res"], ["regista", "da"], ["foi", ":"], ["ri", "co"], ["Su", "b"], ["os", "os"], ["particular", "mente"], ["ab", "ando"], ["di", "to"], ["contex", "to"], ["li", "as"], ["ni", "dade"], ["bas", "es"], ["matem", "ática"], ["ar", "do"], ["conf", "li"], ["lan", "çado"], ["fi", "cial"], ["re", "vel"], ["W", "or"], ["to", "p"], ["re", "ino"], ["experi", "ência"], ["ur", "ânio"], ["A", "ni"], ["an", "n"], ["vari", "edade"], ["En", "quanto"], ["me", "can"], ["fre", "nte"], ["se", "cre"], ["pa", "z"], ["di", "fica"], ["ca", "ça"], ["fa", "be"], ["I", "P"], ["ar", "di"], ["Gon", "çal"], ["c", "á"], ["C", "P"], ["le", "y"], ["Martin", "ho"], ["espanhol", "."], ["jo", "go"], ["trabal", "hos"], ["terres", "tre"], ["av", "an"]], "version": 1}